/* Copyright 2020 The TensorFlow Authors. All Rights Reserved.

Licensed under the Apache License, Version 2.0 (the "License");
you may not use this file except in compliance with the License.
You may obtain a copy of the License at

    http://www.apache.org/licenses/LICENSE-2.0

Unless required by applicable law or agreed to in writing, software
distributed under the License is distributed on an "AS IS" BASIS,
WITHOUT WARRANTIES OR CONDITIONS OF ANY KIND, either express or implied.
See the License for the specific language governing permissions and
limitations under the License.
==============================================================================*/

// This is a standard TensorFlow Lite FlatBuffer model file that has been
// converted into a C data array, so it can be easily compiled into a binary
// for devices that don't have a file system. It was created using the command:
// xxd -i model.tflite > model.cc

#include "model.h"

// We need to keep the data array aligned on some architectures.
#ifdef __has_attribute
#define HAVE_ATTRIBUTE(x) __has_attribute(x)
#else
#define HAVE_ATTRIBUTE(x) 0
#endif
#if HAVE_ATTRIBUTE(aligned) || (defined(__GNUC__) && !defined(__clang__))
#define DATA_ALIGN_ATTRIBUTE __attribute__((aligned(4)))
#else
#define DATA_ALIGN_ATTRIBUTE
#endif

const unsigned char g_model[] DATA_ALIGN_ATTRIBUTE = {
  0x1c, 0x00, 0x00, 0x00, 0x54, 0x46, 0x4c, 0x33, 0x14, 0x00, 0x20, 0x00,
  0x1c, 0x00, 0x18, 0x00, 0x14, 0x00, 0x10, 0x00, 0x0c, 0x00, 0x00, 0x00,
  0x08, 0x00, 0x04, 0x00, 0x14, 0x00, 0x00, 0x00, 0x1c, 0x00, 0x00, 0x00,
  0x8c, 0x00, 0x00, 0x00, 0xe4, 0x00, 0x00, 0x00, 0xf4, 0x09, 0x00, 0x00,
  0x04, 0x0a, 0x00, 0x00, 0x10, 0x1a, 0x00, 0x00, 0x03, 0x00, 0x00, 0x00,
  0x01, 0x00, 0x00, 0x00, 0x10, 0x00, 0x00, 0x00, 0x00, 0x00, 0x0a, 0x00,
  0x10, 0x00, 0x0c, 0x00, 0x08, 0x00, 0x04, 0x00, 0x0a, 0x00, 0x00, 0x00,
  0x0c, 0x00, 0x00, 0x00, 0x1c, 0x00, 0x00, 0x00, 0x3c, 0x00, 0x00, 0x00,
  0x0f, 0x00, 0x00, 0x00, 0x73, 0x65, 0x72, 0x76, 0x69, 0x6e, 0x67, 0x5f,
  0x64, 0x65, 0x66, 0x61, 0x75, 0x6c, 0x74, 0x00, 0x01, 0x00, 0x00, 0x00,
  0x04, 0x00, 0x00, 0x00, 0x9c, 0xff, 0xff, 0xff, 0x16, 0x00, 0x00, 0x00,
  0x04, 0x00, 0x00, 0x00, 0x08, 0x00, 0x00, 0x00, 0x6f, 0x75, 0x74, 0x70,
  0x75, 0x74, 0x5f, 0x30, 0x00, 0x00, 0x00, 0x00, 0x01, 0x00, 0x00, 0x00,
  0x04, 0x00, 0x00, 0x00, 0xe6, 0xf5, 0xff, 0xff, 0x04, 0x00, 0x00, 0x00,
  0x01, 0x00, 0x00, 0x00, 0x78, 0x00, 0x00, 0x00, 0x02, 0x00, 0x00, 0x00,
  0x34, 0x00, 0x00, 0x00, 0x04, 0x00, 0x00, 0x00, 0xdc, 0xff, 0xff, 0xff,
  0x19, 0x00, 0x00, 0x00, 0x04, 0x00, 0x00, 0x00, 0x13, 0x00, 0x00, 0x00,
  0x43, 0x4f, 0x4e, 0x56, 0x45, 0x52, 0x53, 0x49, 0x4f, 0x4e, 0x5f, 0x4d,
  0x45, 0x54, 0x41, 0x44, 0x41, 0x54, 0x41, 0x00, 0x08, 0x00, 0x0c, 0x00,
  0x08, 0x00, 0x04, 0x00, 0x08, 0x00, 0x00, 0x00, 0x18, 0x00, 0x00, 0x00,
  0x04, 0x00, 0x00, 0x00, 0x13, 0x00, 0x00, 0x00, 0x6d, 0x69, 0x6e, 0x5f,
  0x72, 0x75, 0x6e, 0x74, 0x69, 0x6d, 0x65, 0x5f, 0x76, 0x65, 0x72, 0x73,
  0x69, 0x6f, 0x6e, 0x00, 0x1a, 0x00, 0x00, 0x00, 0x0c, 0x09, 0x00, 0x00,
  0x04, 0x09, 0x00, 0x00, 0xe4, 0x08, 0x00, 0x00, 0xc4, 0x08, 0x00, 0x00,
  0xa4, 0x08, 0x00, 0x00, 0x84, 0x08, 0x00, 0x00, 0x6c, 0x08, 0x00, 0x00,
  0x4c, 0x08, 0x00, 0x00, 0x3c, 0x04, 0x00, 0x00, 0xec, 0x03, 0x00, 0x00,
  0x5c, 0x02, 0x00, 0x00, 0x2c, 0x02, 0x00, 0x00, 0xe4, 0x00, 0x00, 0x00,
  0xdc, 0x00, 0x00, 0x00, 0xd4, 0x00, 0x00, 0x00, 0xcc, 0x00, 0x00, 0x00,
  0xc4, 0x00, 0x00, 0x00, 0xbc, 0x00, 0x00, 0x00, 0xb4, 0x00, 0x00, 0x00,
  0xac, 0x00, 0x00, 0x00, 0xa4, 0x00, 0x00, 0x00, 0x9c, 0x00, 0x00, 0x00,
  0x94, 0x00, 0x00, 0x00, 0x8c, 0x00, 0x00, 0x00, 0x6c, 0x00, 0x00, 0x00,
  0x04, 0x00, 0x00, 0x00, 0xbe, 0xf6, 0xff, 0xff, 0x04, 0x00, 0x00, 0x00,
  0x58, 0x00, 0x00, 0x00, 0x0c, 0x00, 0x00, 0x00, 0x08, 0x00, 0x0e, 0x00,
  0x08, 0x00, 0x04, 0x00, 0x08, 0x00, 0x00, 0x00, 0x10, 0x00, 0x00, 0x00,
  0x28, 0x00, 0x00, 0x00, 0x00, 0x00, 0x06, 0x00, 0x08, 0x00, 0x04, 0x00,
  0x06, 0x00, 0x00, 0x00, 0x04, 0x00, 0x00, 0x00, 0x01, 0x00, 0x00, 0x00,
  0xeb, 0x03, 0x00, 0x00, 0x00, 0x00, 0x0a, 0x00, 0x10, 0x00, 0x0c, 0x00,
  0x08, 0x00, 0x04, 0x00, 0x0a, 0x00, 0x00, 0x00, 0x03, 0x00, 0x00, 0x00,
  0x02, 0x00, 0x00, 0x00, 0x04, 0x00, 0x00, 0x00, 0x06, 0x00, 0x00, 0x00,
  0x32, 0x2e, 0x31, 0x31, 0x2e, 0x31, 0x00, 0x00, 0x22, 0xf7, 0xff, 0xff,
  0x04, 0x00, 0x00, 0x00, 0x10, 0x00, 0x00, 0x00, 0x31, 0x2e, 0x31, 0x34,
  0x2e, 0x30, 0x00, 0x00, 0x00, 0x00, 0x00, 0x00, 0x00, 0x00, 0x00, 0x00,
  0x70, 0xe8, 0xff, 0xff, 0x74, 0xe8, 0xff, 0xff, 0x78, 0xe8, 0xff, 0xff,
  0x7c, 0xe8, 0xff, 0xff, 0x80, 0xe8, 0xff, 0xff, 0x84, 0xe8, 0xff, 0xff,
  0x88, 0xe8, 0xff, 0xff, 0x8c, 0xe8, 0xff, 0xff, 0x90, 0xe8, 0xff, 0xff,
  0x94, 0xe8, 0xff, 0xff, 0x98, 0xe8, 0xff, 0xff, 0x6a, 0xf7, 0xff, 0xff,
  0x04, 0x00, 0x00, 0x00, 0x38, 0x01, 0x00, 0x00, 0x81, 0xf5, 0xda, 0xe8,
  0x00, 0xfe, 0x13, 0xf0, 0x02, 0xfb, 0x24, 0xf5, 0xf6, 0xcb, 0xcc, 0xd7,
  0xeb, 0xf5, 0x02, 0xf7, 0x23, 0xfe, 0x03, 0xf8, 0x06, 0xfe, 0xd7, 0xc4,
  0xdb, 0xec, 0x16, 0x0a, 0xfb, 0x0d, 0x00, 0xfc, 0x0f, 0x00, 0x15, 0x9d,
  0xd9, 0xe3, 0xe5, 0xdf, 0x01, 0x24, 0x10, 0x1c, 0x07, 0x0d, 0x21, 0x1e,
  0x81, 0x50, 0x10, 0xf8, 0x0c, 0x18, 0x06, 0x25, 0x29, 0x0d, 0xfa, 0x00,
  0x1b, 0xae, 0x12, 0x0f, 0xef, 0x15, 0xfc, 0xed, 0x0e, 0x03, 0xe8, 0xd2,
  0xdc, 0xfa, 0x03, 0xc1, 0xcb, 0x10, 0x03, 0xed, 0xe2, 0xec, 0x09, 0xee,
  0x13, 0x06, 0x09, 0xc1, 0x36, 0x44, 0x4e, 0x4a, 0x33, 0x1b, 0xff, 0xeb,
  0xee, 0xdc, 0xf2, 0xf6, 0xf6, 0x04, 0xdd, 0x81, 0xad, 0xe6, 0xf1, 0x13,
  0x14, 0x09, 0x1d, 0x14, 0x0c, 0x36, 0xe1, 0xb4, 0x81, 0xf8, 0xe7, 0x10,
  0x1c, 0x10, 0xff, 0xec, 0xca, 0xd2, 0x4b, 0xb2, 0xdb, 0xfc, 0xf0, 0xf7,
  0xdd, 0x04, 0xfb, 0xfa, 0xfb, 0x10, 0x1e, 0x68, 0xbc, 0xc6, 0x10, 0x13,
  0xda, 0xda, 0xdc, 0x02, 0x02, 0x1b, 0x03, 0x07, 0x09, 0xeb, 0x62, 0xe4,
  0x11, 0x15, 0x12, 0x0d, 0x15, 0x26, 0x03, 0xf6, 0x01, 0x04, 0x8d, 0x1e,
  0xec, 0x12, 0x1a, 0x0f, 0x12, 0x1a, 0x13, 0xf9, 0xf5, 0x08, 0x18, 0x81,
  0x0d, 0xd6, 0xe4, 0xe6, 0xec, 0x13, 0xee, 0xf3, 0xf6, 0x22, 0x0a, 0x55,
  0x6a, 0x81, 0xfe, 0xfe, 0x0a, 0xda, 0xed, 0x0f, 0x68, 0x0b, 0xe0, 0xf4,
  0x3d, 0x34, 0x9a, 0xfc, 0x05, 0x10, 0xfd, 0xdb, 0x2d, 0x47, 0x0a, 0xf3,
  0x0c, 0x22, 0x23, 0xa1, 0xf5, 0x17, 0xf0, 0xcd, 0xef, 0x30, 0x1c, 0x0b,
  0xdb, 0x1c, 0x41, 0x60, 0x26, 0x81, 0xa8, 0xfb, 0x45, 0x0a, 0xda, 0xfc,
  0x22, 0x1b, 0x1a, 0x32, 0x2d, 0x37, 0xbd, 0xc2, 0xe1, 0x1d, 0x0d, 0xea,
  0xf4, 0x18, 0x2b, 0x0c, 0x47, 0x64, 0xbe, 0xd3, 0x98, 0x11, 0x2d, 0xc5,
  0xf5, 0xfa, 0x1a, 0x17, 0xe8, 0x32, 0x17, 0x2a, 0x7b, 0x2a, 0x18, 0x1b,
  0xf5, 0xca, 0xe1, 0x14, 0x00, 0x0f, 0x17, 0xfd, 0xef, 0x74, 0x0e, 0xe9,
  0x0d, 0x1f, 0xfe, 0xea, 0xe1, 0x07, 0x1b, 0x23, 0xbf, 0xc3, 0x7f, 0xfc,
  0xd5, 0xe0, 0xf8, 0x02, 0xf5, 0x05, 0xec, 0xf2, 0xae, 0xf8, 0xff, 0xff,
  0x04, 0x00, 0x00, 0x00, 0x20, 0x00, 0x00, 0x00, 0x16, 0xff, 0xff, 0xff,
  0x8c, 0x01, 0x00, 0x00, 0xf9, 0xf3, 0xff, 0xff, 0x97, 0xf8, 0xff, 0xff,
  0xe1, 0xf9, 0xff, 0xff, 0x45, 0xdf, 0xff, 0xff, 0x58, 0xe4, 0xff, 0xff,
  0x4e, 0xee, 0xff, 0xff, 0xda, 0xf8, 0xff, 0xff, 0x04, 0x00, 0x00, 0x00,
  0x80, 0x01, 0x00, 0x00, 0x94, 0xd5, 0xb3, 0x10, 0xb1, 0x05, 0xf4, 0x9c,
  0x81, 0xd5, 0xee, 0xf2, 0xdc, 0xec, 0x61, 0xc1, 0x93, 0xee, 0xe8, 0xe7,
  0xcc, 0xe2, 0x02, 0xd3, 0xe8, 0xed, 0x72, 0x28, 0xf6, 0xe1, 0xfb, 0xff,
  0xed, 0xe7, 0x04, 0x19, 0x05, 0xe7, 0xe9, 0x06, 0xe6, 0xea, 0x7f, 0xd2,
  0xea, 0xcc, 0xf4, 0x07, 0xe8, 0x1a, 0x06, 0x8e, 0xab, 0xca, 0xcd, 0xe9,
  0x9a, 0x18, 0xdd, 0xe3, 0x81, 0xf7, 0xbc, 0x35, 0x83, 0xb7, 0xd5, 0x2a,
  0xae, 0x29, 0xd6, 0xf7, 0xf8, 0x07, 0x15, 0xea, 0x3e, 0x81, 0xef, 0xf8,
  0xd4, 0xb5, 0xfd, 0xfe, 0xf2, 0xd2, 0xf2, 0x06, 0xa9, 0x9c, 0xf4, 0xf7,
  0xff, 0xf8, 0x31, 0x08, 0xa1, 0xb6, 0xc1, 0xee, 0xb7, 0x21, 0x15, 0x14,
  0x81, 0xe8, 0xf1, 0xe8, 0xce, 0xfb, 0xfc, 0xed, 0x95, 0xf0, 0xd1, 0xe5,
  0xc7, 0x32, 0x15, 0x14, 0xd0, 0xf9, 0xf4, 0x7f, 0xd7, 0x04, 0xc5, 0x2d,
  0xbe, 0x09, 0x40, 0xa1, 0xf5, 0xc6, 0xb8, 0x27, 0xcd, 0x2b, 0x34, 0xc2,
  0x1b, 0xa4, 0xee, 0xe5, 0xb7, 0xa5, 0x06, 0x1f, 0xfc, 0x0d, 0x1e, 0xf9,
  0xad, 0x81, 0xbc, 0xff, 0xd9, 0x00, 0xed, 0xf6, 0x92, 0x84, 0xdb, 0xed,
  0xcf, 0xfe, 0xea, 0x1c, 0xda, 0xf0, 0xd2, 0xdc, 0xe6, 0xff, 0x6b, 0xee,
  0xe4, 0x02, 0xee, 0xad, 0x04, 0xd0, 0xe9, 0x04, 0x01, 0x09, 0x0c, 0x89,
  0xe5, 0x81, 0xf5, 0xe0, 0xde, 0x86, 0xf6, 0x15, 0xf3, 0x08, 0xf6, 0xe2,
  0xf5, 0x9c, 0xe3, 0x04, 0x3f, 0xbd, 0xf0, 0x04, 0xf4, 0x81, 0xee, 0x0f,
  0x00, 0xdb, 0xd7, 0x08, 0xda, 0xaa, 0xec, 0x14, 0xf0, 0x2d, 0xac, 0x52,
  0xfa, 0xee, 0xed, 0xef, 0xf7, 0xc9, 0xb5, 0xf0, 0x04, 0x01, 0x0a, 0x81,
  0xf5, 0xbd, 0x88, 0x07, 0xef, 0x0a, 0xff, 0x9b, 0xb5, 0xaa, 0xf1, 0x0c,
  0x81, 0xe5, 0xf2, 0xc7, 0xc3, 0xd4, 0xef, 0xf4, 0xa2, 0xd4, 0xfc, 0x0f,
  0xd8, 0x12, 0xf9, 0x30, 0xe8, 0xdf, 0xdc, 0xfa, 0x12, 0x33, 0xeb, 0xab,
  0xf4, 0xee, 0xe0, 0xf3, 0xf7, 0xd9, 0xdc, 0x82, 0xff, 0xe3, 0xe2, 0x10,
  0x21, 0x91, 0xc2, 0x81, 0xf1, 0x04, 0x29, 0x4a, 0xea, 0xad, 0x26, 0x81,
  0xef, 0x02, 0x0d, 0xb0, 0xf9, 0x96, 0xd8, 0xd3, 0xeb, 0x0f, 0x2b, 0xd7,
  0x01, 0x8a, 0x9b, 0x4a, 0x03, 0xff, 0xf3, 0xc2, 0xd0, 0xed, 0xe1, 0xba,
  0x0d, 0xf8, 0xfc, 0xd6, 0xc9, 0xdb, 0xc1, 0x81, 0x00, 0x05, 0xfc, 0xbb,
  0xd6, 0xac, 0xf5, 0xb8, 0x0e, 0x1b, 0x6c, 0xae, 0xfe, 0xa2, 0xe6, 0xcb,
  0xf7, 0xed, 0x65, 0xc4, 0xee, 0xbc, 0x04, 0xb8, 0xd2, 0x81, 0x53, 0x57,
  0x17, 0x10, 0x42, 0xe3, 0x2e, 0x04, 0xe9, 0xe9, 0xe7, 0x89, 0x86, 0xf0,
  0xec, 0xe9, 0xf8, 0xb0, 0xb5, 0xa0, 0xf4, 0xfa, 0xab, 0xca, 0xd7, 0xcc,
  0x81, 0xe2, 0xff, 0x49, 0x66, 0xfa, 0xff, 0xff, 0x04, 0x00, 0x00, 0x00,
  0x40, 0x00, 0x00, 0x00, 0xd1, 0xfb, 0xff, 0xff, 0xf8, 0xfc, 0xff, 0xff,
  0x5c, 0xfc, 0xff, 0xff, 0x15, 0xf6, 0xff, 0xff, 0x42, 0x07, 0x00, 0x00,
  0x60, 0xf7, 0xff, 0xff, 0xd7, 0xfe, 0xff, 0xff, 0xa8, 0xfb, 0xff, 0xff,
  0xd0, 0xff, 0xff, 0xff, 0x75, 0x00, 0x00, 0x00, 0x2c, 0xfd, 0xff, 0xff,
  0x77, 0xff, 0xff, 0xff, 0xfe, 0xfc, 0xff, 0xff, 0xd9, 0x03, 0x00, 0x00,
  0xe8, 0xf1, 0xff, 0xff, 0xd6, 0xfd, 0xff, 0xff, 0xb2, 0xfa, 0xff, 0xff,
  0x04, 0x00, 0x00, 0x00, 0x00, 0x04, 0x00, 0x00, 0x05, 0x17, 0xf0, 0xea,
  0x10, 0x08, 0x09, 0x0f, 0x07, 0xea, 0xbc, 0x23, 0x22, 0xc8, 0x3d, 0xca,
  0xd5, 0x1b, 0xc0, 0x0a, 0xdf, 0x2b, 0xc7, 0xe4, 0xfb, 0xe7, 0xb2, 0xfb,
  0xf8, 0xf7, 0x08, 0xcb, 0xee, 0x1c, 0x05, 0xf0, 0xac, 0x1e, 0xe5, 0xff,
  0xe6, 0xf5, 0xe3, 0x0c, 0xf9, 0x09, 0x1f, 0xdb, 0xdc, 0x20, 0xeb, 0xdf,
  0xb0, 0xfa, 0xf1, 0xfc, 0x07, 0xeb, 0xec, 0xf7, 0x16, 0xe4, 0x26, 0xe6,
  0xe8, 0x1a, 0x05, 0xe4, 0xbc, 0x24, 0xee, 0x02, 0x03, 0x14, 0xca, 0xf8,
  0x08, 0xe3, 0x14, 0xc8, 0xbf, 0x26, 0xce, 0x19, 0xb8, 0xff, 0xc5, 0x0e,
  0xfa, 0xff, 0xab, 0xdc, 0x14, 0xba, 0x20, 0xa9, 0xc1, 0x1f, 0x0a, 0x07,
  0x99, 0x22, 0xcd, 0x1e, 0x0e, 0x16, 0xee, 0xe7, 0x0d, 0xd1, 0x11, 0xc3,
  0xb9, 0x10, 0xd6, 0x13, 0x97, 0x18, 0xe2, 0x00, 0x05, 0x09, 0xce, 0xf3,
  0x13, 0xe6, 0x1a, 0xa4, 0xa4, 0x18, 0xf1, 0xfa, 0x90, 0x26, 0xe2, 0xf1,
  0x03, 0x1e, 0xec, 0xee, 0x21, 0xb3, 0x15, 0xf6, 0xba, 0x1e, 0xfc, 0xf9,
  0x9e, 0x1d, 0xe8, 0xeb, 0xf5, 0x02, 0xcb, 0xfe, 0xef, 0xba, 0x16, 0xc8,
  0xbc, 0x17, 0xf3, 0xef, 0x89, 0x04, 0xf0, 0xf9, 0xfe, 0x06, 0xdc, 0xe3,
  0x35, 0xea, 0x30, 0xbf, 0xf2, 0x20, 0xf4, 0xea, 0xa4, 0x27, 0xd2, 0xe9,
  0x00, 0x1e, 0xcb, 0xcf, 0x36, 0xcb, 0x0b, 0xe9, 0xd6, 0x19, 0x29, 0xe3,
  0x99, 0x0d, 0xd6, 0xeb, 0x07, 0xfb, 0xd5, 0xf9, 0x15, 0xba, 0x11, 0xd7,
  0xcc, 0x0a, 0x21, 0xd7, 0x81, 0x24, 0xcd, 0xe0, 0x16, 0x01, 0xf1, 0xd8,
  0x0c, 0xd7, 0xf9, 0xc2, 0xac, 0x12, 0x1d, 0xde, 0xb2, 0x15, 0xe2, 0x08,
  0x13, 0x0b, 0xdd, 0xfb, 0x09, 0xca, 0x07, 0xce, 0xc1, 0x3f, 0x26, 0x00,
  0xd8, 0xf6, 0x11, 0xe6, 0xf4, 0x1f, 0x15, 0x00, 0x2a, 0xfe, 0x24, 0xd4,
  0xd2, 0x03, 0x21, 0xce, 0x0e, 0xea, 0xf5, 0xec, 0x0c, 0x0d, 0x19, 0x14,
  0xf1, 0xf7, 0xfd, 0x28, 0xfb, 0xfe, 0x18, 0xed, 0x20, 0xfa, 0x02, 0xeb,
  0x13, 0x0d, 0x1c, 0x07, 0x07, 0x04, 0xe0, 0x11, 0x0e, 0xfe, 0x1c, 0xd3,
  0x16, 0xec, 0xee, 0xe9, 0x04, 0xf2, 0x1f, 0xfc, 0xfd, 0xfe, 0xf2, 0x16,
  0x19, 0xfc, 0x26, 0xde, 0x0f, 0x07, 0xf5, 0x03, 0xf9, 0x0b, 0x2b, 0xee,
  0xf8, 0xe9, 0xe9, 0x15, 0x0d, 0xf2, 0x22, 0xee, 0x04, 0xf2, 0x02, 0x11,
  0xce, 0xea, 0x21, 0xfa, 0x0a, 0xfd, 0xe4, 0x10, 0x16, 0x04, 0x16, 0xd0,
  0x08, 0xfc, 0xfe, 0x1c, 0xd6, 0xff, 0x1a, 0xf0, 0xfe, 0x02, 0x00, 0x17,
  0x11, 0xf1, 0x1d, 0xc4, 0x07, 0xe3, 0xf9, 0x1c, 0xb5, 0x00, 0x1a, 0xdd,
  0x0f, 0xfa, 0x06, 0x1b, 0x1e, 0xf7, 0x1b, 0xcb, 0x0c, 0xce, 0x10, 0x11,
  0xca, 0xeb, 0x2e, 0xea, 0x04, 0xfa, 0xf0, 0x0c, 0x24, 0xdf, 0x1b, 0xd6,
  0x0d, 0xe2, 0x0b, 0x19, 0xe4, 0xf2, 0x15, 0xe2, 0x01, 0x19, 0xf9, 0x12,
  0x1d, 0xe7, 0x17, 0xe1, 0x09, 0x03, 0x08, 0x27, 0xfd, 0xf9, 0x18, 0xe3,
  0x04, 0x15, 0xe2, 0x17, 0x11, 0xf8, 0x27, 0xf4, 0x0a, 0xeb, 0x0e, 0x20,
  0xd5, 0xf0, 0x11, 0xe9, 0xf9, 0xdb, 0x07, 0x16, 0x1d, 0xf9, 0x28, 0x00,
  0x11, 0xe8, 0x09, 0x27, 0xe3, 0xef, 0x10, 0xd8, 0x02, 0x07, 0xf4, 0x04,
  0x1a, 0xe0, 0x14, 0xd7, 0x11, 0xf6, 0x09, 0x1c, 0xc4, 0xe5, 0xe1, 0xe8,
  0xf6, 0x09, 0xf8, 0xff, 0x25, 0xee, 0x12, 0xeb, 0x08, 0xf5, 0xfe, 0x0f,
  0xba, 0xe1, 0xe7, 0xd5, 0x02, 0x12, 0xfd, 0x1c, 0x1a, 0xfd, 0x1e, 0xea,
  0x00, 0xf5, 0xf5, 0x1b, 0xd7, 0xfd, 0xf8, 0xe5, 0xd9, 0x08, 0xfa, 0x40,
  0x2e, 0xec, 0xf1, 0xf7, 0x00, 0xf9, 0xeb, 0x15, 0xea, 0xf5, 0x15, 0xcd,
  0x17, 0xf6, 0x02, 0x00, 0x0a, 0xe6, 0xdb, 0x08, 0xdc, 0xf9, 0x0e, 0x0b,
  0xfe, 0xfc, 0xf1, 0x0c, 0xf6, 0x14, 0x0c, 0xee, 0x30, 0xef, 0xd9, 0x18,
  0xfb, 0xe8, 0x1e, 0xf6, 0x0e, 0xf5, 0xc1, 0x1f, 0xdf, 0x02, 0x09, 0xe6,
  0x18, 0xf9, 0xd7, 0x0d, 0x06, 0xe7, 0x13, 0x18, 0xf4, 0x12, 0xc6, 0x0d,
  0xe0, 0xfa, 0x01, 0xdf, 0x1f, 0xfc, 0xee, 0x20, 0x08, 0xe8, 0x1d, 0xf5,
  0x0b, 0x04, 0xd9, 0xee, 0xdd, 0x0e, 0x14, 0xea, 0x0e, 0x07, 0xe6, 0x21,
  0x0e, 0x04, 0x25, 0xf2, 0x0c, 0x1a, 0xe8, 0xf7, 0xe9, 0xfd, 0x0b, 0xe2,
  0x11, 0xf2, 0xd1, 0x23, 0x06, 0x08, 0x1a, 0x00, 0x10, 0x1b, 0xee, 0xfc,
  0xe0, 0xf7, 0x06, 0xd3, 0x11, 0xfa, 0xd7, 0x1b, 0x0f, 0xff, 0x15, 0x08,
  0x0f, 0x22, 0xd1, 0xff, 0xe3, 0xfe, 0x18, 0xe6, 0x16, 0xf5, 0xe6, 0x12,
  0x15, 0xf8, 0x19, 0x0a, 0x0b, 0x1d, 0xeb, 0xf9, 0xe7, 0x02, 0x13, 0xee,
  0x13, 0x10, 0xe0, 0x0d, 0x11, 0xf0, 0x20, 0x11, 0x10, 0x28, 0xe6, 0xfa,
  0xe7, 0xf6, 0x0f, 0xe2, 0x1a, 0xff, 0xd8, 0x18, 0x18, 0x15, 0x1c, 0x0b,
  0x02, 0x1b, 0xfc, 0xf1, 0xf1, 0xe8, 0x08, 0xed, 0x08, 0xf9, 0xe9, 0x03,
  0x14, 0x0b, 0x17, 0x0d, 0x01, 0x25, 0xf8, 0xfa, 0xef, 0x05, 0x19, 0xf3,
  0x12, 0x0a, 0xec, 0xf4, 0x1b, 0x09, 0x11, 0x02, 0xfa, 0x2b, 0xfe, 0xff,
  0xf6, 0x10, 0xf4, 0xd7, 0x14, 0x02, 0xfb, 0x04, 0x1e, 0xfa, 0x15, 0x0b,
  0x09, 0x20, 0x03, 0xfd, 0xe9, 0x0d, 0x0f, 0xf3, 0x11, 0xe6, 0xe0, 0x11,
  0x0d, 0xfe, 0x11, 0x0d, 0xfe, 0x2c, 0xe6, 0xed, 0xf0, 0xfa, 0x07, 0xdc,
  0x0a, 0xfe, 0xe0, 0xfd, 0x07, 0x08, 0xfe, 0xf8, 0x03, 0x26, 0xfa, 0xde,
  0xe7, 0x01, 0xf2, 0xfc, 0x15, 0xf7, 0xee, 0xec, 0xff, 0x0d, 0x0a, 0x14,
  0xa3, 0x0c, 0x08, 0xfe, 0xea, 0xf7, 0xdd, 0x07, 0x19, 0x19, 0x03, 0x16,
  0x18, 0xe9, 0xfc, 0x05, 0xf2, 0xee, 0x2a, 0xb1, 0xfd, 0x0e, 0xd8, 0x28,
  0x03, 0xf1, 0x0c, 0x20, 0x0d, 0xe6, 0x0b, 0x1f, 0xd4, 0xfb, 0x2b, 0xcd,
  0xf8, 0x20, 0x05, 0x1a, 0xdf, 0xef, 0x12, 0x19, 0x14, 0xf5, 0xf3, 0xf0,
  0x10, 0x01, 0x1c, 0xf7, 0x28, 0x1e, 0xe2, 0x14, 0xe1, 0x04, 0x0c, 0x24,
  0x0f, 0x0b, 0xd0, 0xfc, 0x00, 0x07, 0x1e, 0x04, 0xf9, 0x25, 0xd2, 0x17,
  0xdf, 0xf0, 0x0e, 0x03, 0x08, 0xf6, 0xe2, 0xf4, 0x00, 0xfb, 0x32, 0x0d,
  0xff, 0x19, 0x01, 0x1d, 0xc2, 0xeb, 0x15, 0x0a, 0x06, 0xf1, 0xd2, 0xd8,
  0x18, 0xf8, 0x1f, 0x1b, 0xec, 0x25, 0xce, 0x19, 0xc5, 0xed, 0x10, 0x06,
  0xfe, 0xec, 0xd7, 0xad, 0x0b, 0xf0, 0x26, 0x1a, 0x05, 0x2c, 0xf1, 0x28,
  0xe0, 0xf1, 0xf7, 0x05, 0x06, 0xfb, 0xca, 0xd3, 0x13, 0xef, 0x22, 0x1e,
  0x13, 0x06, 0xd7, 0x15, 0xd5, 0x00, 0x0d, 0x0c, 0x10, 0x03, 0xf0, 0xba,
  0x08, 0xd2, 0x1e, 0x21, 0xfb, 0x22, 0xe3, 0x35, 0xdf, 0xdc, 0x16, 0x28,
  0x05, 0xf9, 0xcd, 0xd7, 0x0f, 0xd1, 0x25, 0x14, 0x00, 0x09, 0x0e, 0x1b,
  0xda, 0xeb, 0xff, 0x14, 0x02, 0x06, 0xd0, 0xd0, 0x06, 0xe2, 0x2e, 0x19,
  0xfb, 0x0d, 0xdf, 0x0d, 0xe1, 0xec, 0xe8, 0x0d, 0xfb, 0xfb, 0xed, 0xc0,
  0x1a, 0xce, 0x12, 0x32, 0x0c, 0x32, 0xf0, 0x3d, 0xcb, 0xff, 0xed, 0x17,
  0xfa, 0x07, 0xdf, 0xe6, 0x1b, 0xeb, 0x11, 0x0c, 0xf3, 0x23, 0xdd, 0x26,
  0xc7, 0xf5, 0xde, 0x12, 0x10, 0xf4, 0xc3, 0xe7, 0x16, 0xfd, 0x19, 0x12,
  0xe1, 0x25, 0xf3, 0x11, 0xe0, 0xf8, 0xee, 0x30, 0x16, 0xf0, 0x1a, 0xcd,
  0x03, 0xc9, 0x33, 0x27, 0x20, 0x11, 0xf3, 0xef, 0xd0, 0xff, 0x19, 0x2b,
  0x0c, 0x10, 0xfe, 0xe6, 0x43, 0xec, 0xb3, 0x1f, 0xe5, 0x08, 0x10, 0x09,
  0xbe, 0xfe, 0xff, 0xff, 0x04, 0x00, 0x00, 0x00, 0x10, 0x00, 0x00, 0x00,
  0xa4, 0x0f, 0x00, 0x00, 0x6f, 0xfd, 0xff, 0xff, 0x6d, 0x04, 0x00, 0x00,
  0xbe, 0xf2, 0xff, 0xff, 0xda, 0xfe, 0xff, 0xff, 0x04, 0x00, 0x00, 0x00,
  0x08, 0x00, 0x00, 0x00, 0xff, 0xff, 0xff, 0xff, 0x00, 0x01, 0x00, 0x00,
  0xee, 0xfe, 0xff, 0xff, 0x04, 0x00, 0x00, 0x00, 0x10, 0x00, 0x00, 0x00,
  0x01, 0x00, 0x00, 0x00, 0x1f, 0x00, 0x00, 0x00, 0x01, 0x00, 0x00, 0x00,
  0x10, 0x00, 0x00, 0x00, 0x0a, 0xff, 0xff, 0xff, 0x04, 0x00, 0x00, 0x00,
  0x10, 0x00, 0x00, 0x00, 0x01, 0x00, 0x00, 0x00, 0x01, 0x00, 0x00, 0x00,
  0x1f, 0x00, 0x00, 0x00, 0x08, 0x00, 0x00, 0x00, 0x26, 0xff, 0xff, 0xff,
  0x04, 0x00, 0x00, 0x00, 0x10, 0x00, 0x00, 0x00, 0x01, 0x00, 0x00, 0x00,
  0x3d, 0x00, 0x00, 0x00, 0x01, 0x00, 0x00, 0x00, 0x08, 0x00, 0x00, 0x00,
  0x42, 0xff, 0xff, 0xff, 0x04, 0x00, 0x00, 0x00, 0x10, 0x00, 0x00, 0x00,
  0x01, 0x00, 0x00, 0x00, 0x01, 0x00, 0x00, 0x00, 0x3d, 0x00, 0x00, 0x00,
  0x0d, 0x00, 0x00, 0x00, 0x90, 0xf0, 0xff, 0xff, 0x94, 0xf0, 0xff, 0xff,
  0x0f, 0x00, 0x00, 0x00, 0x4d, 0x4c, 0x49, 0x52, 0x20, 0x43, 0x6f, 0x6e,
  0x76, 0x65, 0x72, 0x74, 0x65, 0x64, 0x2e, 0x00, 0x01, 0x00, 0x00, 0x00,
  0x14, 0x00, 0x00, 0x00, 0x00, 0x00, 0x0e, 0x00, 0x18, 0x00, 0x14, 0x00,
  0x10, 0x00, 0x0c, 0x00, 0x08, 0x00, 0x04, 0x00, 0x0e, 0x00, 0x00, 0x00,
  0x14, 0x00, 0x00, 0x00, 0x1c, 0x00, 0x00, 0x00, 0x84, 0x02, 0x00, 0x00,
  0x88, 0x02, 0x00, 0x00, 0x8c, 0x02, 0x00, 0x00, 0x04, 0x00, 0x00, 0x00,
  0x6d, 0x61, 0x69, 0x6e, 0x00, 0x00, 0x00, 0x00, 0x0b, 0x00, 0x00, 0x00,
  0x48, 0x02, 0x00, 0x00, 0xec, 0x01, 0x00, 0x00, 0xb8, 0x01, 0x00, 0x00,
  0x68, 0x01, 0x00, 0x00, 0x44, 0x01, 0x00, 0x00, 0x00, 0x01, 0x00, 0x00,
  0xdc, 0x00, 0x00, 0x00, 0x9c, 0x00, 0x00, 0x00, 0x78, 0x00, 0x00, 0x00,
  0x40, 0x00, 0x00, 0x00, 0x04, 0x00, 0x00, 0x00, 0x4a, 0xfe, 0xff, 0xff,
  0x1c, 0x00, 0x00, 0x00, 0x00, 0x00, 0x00, 0x09, 0x1c, 0x00, 0x00, 0x00,
  0x20, 0x00, 0x00, 0x00, 0x04, 0x00, 0x00, 0x00, 0x00, 0x00, 0x06, 0x00,
  0x08, 0x00, 0x04, 0x00, 0x06, 0x00, 0x00, 0x00, 0x00, 0x00, 0x80, 0x3f,
  0x01, 0x00, 0x00, 0x00, 0x16, 0x00, 0x00, 0x00, 0x01, 0x00, 0x00, 0x00,
  0x15, 0x00, 0x00, 0x00, 0x82, 0xfe, 0xff, 0xff, 0x14, 0x00, 0x00, 0x00,
  0x00, 0x00, 0x00, 0x08, 0x10, 0x00, 0x00, 0x00, 0x14, 0x00, 0x00, 0x00,
  0x03, 0x00, 0x00, 0x00, 0x68, 0xf1, 0xff, 0xff, 0x01, 0x00, 0x00, 0x00,
  0x15, 0x00, 0x00, 0x00, 0x03, 0x00, 0x00, 0x00, 0x14, 0x00, 0x00, 0x00,
  0x07, 0x00, 0x00, 0x00, 0x06, 0x00, 0x00, 0x00, 0x5a, 0xfe, 0xff, 0xff,
  0x08, 0x00, 0x00, 0x00, 0x0c, 0x00, 0x00, 0x00, 0x01, 0x00, 0x00, 0x00,
  0x14, 0x00, 0x00, 0x00, 0x02, 0x00, 0x00, 0x00, 0x13, 0x00, 0x00, 0x00,
  0x05, 0x00, 0x00, 0x00, 0xd6, 0xfe, 0xff, 0xff, 0x14, 0x00, 0x00, 0x00,
  0x00, 0x00, 0x00, 0x05, 0x20, 0x00, 0x00, 0x00, 0x24, 0x00, 0x00, 0x00,
  0x02, 0x00, 0x00, 0x00, 0x42, 0xff, 0xff, 0xff, 0x02, 0x00, 0x00, 0x00,
  0x01, 0x00, 0x00, 0x00, 0x02, 0x00, 0x00, 0x00, 0x01, 0x00, 0x00, 0x00,
  0x01, 0x00, 0x00, 0x00, 0x13, 0x00, 0x00, 0x00, 0x01, 0x00, 0x00, 0x00,
  0x12, 0x00, 0x00, 0x00, 0xb6, 0xfe, 0xff, 0xff, 0x08, 0x00, 0x00, 0x00,
  0x0c, 0x00, 0x00, 0x00, 0x01, 0x00, 0x00, 0x00, 0x12, 0x00, 0x00, 0x00,
  0x02, 0x00, 0x00, 0x00, 0x11, 0x00, 0x00, 0x00, 0x04, 0x00, 0x00, 0x00,
  0x32, 0xff, 0xff, 0xff, 0x14, 0x00, 0x00, 0x00, 0x00, 0x00, 0x00, 0x01,
  0x1c, 0x00, 0x00, 0x00, 0x20, 0x00, 0x00, 0x00, 0x01, 0x00, 0x00, 0x00,
  0x24, 0xff, 0xff, 0xff, 0x00, 0x00, 0x00, 0x01, 0x01, 0x00, 0x00, 0x00,
  0x01, 0x00, 0x00, 0x00, 0x01, 0x00, 0x00, 0x00, 0x11, 0x00, 0x00, 0x00,
  0x03, 0x00, 0x00, 0x00, 0x10, 0x00, 0x00, 0x00, 0x09, 0x00, 0x00, 0x00,
  0x08, 0x00, 0x00, 0x00, 0x16, 0xff, 0xff, 0xff, 0x08, 0x00, 0x00, 0x00,
  0x0c, 0x00, 0x00, 0x00, 0x01, 0x00, 0x00, 0x00, 0x10, 0x00, 0x00, 0x00,
  0x02, 0x00, 0x00, 0x00, 0x0f, 0x00, 0x00, 0x00, 0x03, 0x00, 0x00, 0x00,
  0x92, 0xff, 0xff, 0xff, 0x24, 0x00, 0x00, 0x00, 0x00, 0x00, 0x00, 0x05,
  0x30, 0x00, 0x00, 0x00, 0x34, 0x00, 0x00, 0x00, 0x02, 0x00, 0x00, 0x00,
  0x00, 0x00, 0x0e, 0x00, 0x14, 0x00, 0x00, 0x00, 0x10, 0x00, 0x0c, 0x00,
  0x08, 0x00, 0x04, 0x00, 0x0e, 0x00, 0x00, 0x00, 0x02, 0x00, 0x00, 0x00,
  0x01, 0x00, 0x00, 0x00, 0x02, 0x00, 0x00, 0x00, 0x01, 0x00, 0x00, 0x00,
  0x01, 0x00, 0x00, 0x00, 0x0f, 0x00, 0x00, 0x00, 0x01, 0x00, 0x00, 0x00,
  0x0e, 0x00, 0x00, 0x00, 0x82, 0xff, 0xff, 0xff, 0x08, 0x00, 0x00, 0x00,
  0x0c, 0x00, 0x00, 0x00, 0x01, 0x00, 0x00, 0x00, 0x0e, 0x00, 0x00, 0x00,
  0x02, 0x00, 0x00, 0x00, 0x0d, 0x00, 0x00, 0x00, 0x02, 0x00, 0x00, 0x00,
  0x00, 0x00, 0x0e, 0x00, 0x18, 0x00, 0x14, 0x00, 0x10, 0x00, 0x0c, 0x00,
  0x0b, 0x00, 0x04, 0x00, 0x0e, 0x00, 0x00, 0x00, 0x20, 0x00, 0x00, 0x00,
  0x00, 0x00, 0x00, 0x01, 0x28, 0x00, 0x00, 0x00, 0x2c, 0x00, 0x00, 0x00,
  0x01, 0x00, 0x00, 0x00, 0x0c, 0x00, 0x10, 0x00, 0x00, 0x00, 0x0c, 0x00,
  0x08, 0x00, 0x07, 0x00, 0x0c, 0x00, 0x00, 0x00, 0x00, 0x00, 0x00, 0x01,
  0x01, 0x00, 0x00, 0x00, 0x01, 0x00, 0x00, 0x00, 0x01, 0x00, 0x00, 0x00,
  0x0d, 0x00, 0x00, 0x00, 0x03, 0x00, 0x00, 0x00, 0x0c, 0x00, 0x00, 0x00,
  0x0b, 0x00, 0x00, 0x00, 0x0a, 0x00, 0x00, 0x00, 0x00, 0x00, 0x0a, 0x00,
  0x0c, 0x00, 0x00, 0x00, 0x08, 0x00, 0x04, 0x00, 0x0a, 0x00, 0x00, 0x00,
  0x08, 0x00, 0x00, 0x00, 0x0c, 0x00, 0x00, 0x00, 0x01, 0x00, 0x00, 0x00,
  0x0c, 0x00, 0x00, 0x00, 0x02, 0x00, 0x00, 0x00, 0x00, 0x00, 0x00, 0x00,
  0x01, 0x00, 0x00, 0x00, 0x01, 0x00, 0x00, 0x00, 0x16, 0x00, 0x00, 0x00,
  0x01, 0x00, 0x00, 0x00, 0x00, 0x00, 0x00, 0x00, 0x17, 0x00, 0x00, 0x00,
  0xe8, 0x0c, 0x00, 0x00, 0x78, 0x0c, 0x00, 0x00, 0x24, 0x0c, 0x00, 0x00,
  0xcc, 0x0b, 0x00, 0x00, 0x74, 0x0b, 0x00, 0x00, 0x28, 0x0b, 0x00, 0x00,
  0xac, 0x0a, 0x00, 0x00, 0x40, 0x0a, 0x00, 0x00, 0x14, 0x09, 0x00, 0x00,
  0xe8, 0x07, 0x00, 0x00, 0x1c, 0x07, 0x00, 0x00, 0x50, 0x06, 0x00, 0x00,
  0xcc, 0x05, 0x00, 0x00, 0xe0, 0x04, 0x00, 0x00, 0x5c, 0x04, 0x00, 0x00,
  0xe0, 0x03, 0x00, 0x00, 0x5c, 0x03, 0x00, 0x00, 0x60, 0x02, 0x00, 0x00,
  0xdc, 0x01, 0x00, 0x00, 0x60, 0x01, 0x00, 0x00, 0xf4, 0x00, 0x00, 0x00,
  0x70, 0x00, 0x00, 0x00, 0x04, 0x00, 0x00, 0x00, 0x8a, 0xf3, 0xff, 0xff,
  0x00, 0x00, 0x00, 0x01, 0x14, 0x00, 0x00, 0x00, 0x30, 0x00, 0x00, 0x00,
  0x17, 0x00, 0x00, 0x00, 0x00, 0x00, 0x00, 0x09, 0x44, 0x00, 0x00, 0x00,
  0x74, 0xf3, 0xff, 0xff, 0x08, 0x00, 0x00, 0x00, 0x10, 0x00, 0x00, 0x00,
  0x01, 0x00, 0x00, 0x00, 0x80, 0xff, 0xff, 0xff, 0xff, 0xff, 0xff, 0xff,
  0x01, 0x00, 0x00, 0x00, 0x00, 0x00, 0x80, 0x3b, 0x19, 0x00, 0x00, 0x00,
  0x53, 0x74, 0x61, 0x74, 0x65, 0x66, 0x75, 0x6c, 0x50, 0x61, 0x72, 0x74,
  0x69, 0x74, 0x69, 0x6f, 0x6e, 0x65, 0x64, 0x43, 0x61, 0x6c, 0x6c, 0x3a,
  0x30, 0x00, 0x00, 0x00, 0x02, 0x00, 0x00, 0x00, 0x01, 0x00, 0x00, 0x00,
  0x04, 0x00, 0x00, 0x00, 0xf2, 0xf3, 0xff, 0xff, 0x00, 0x00, 0x00, 0x01,
  0x14, 0x00, 0x00, 0x00, 0x30, 0x00, 0x00, 0x00, 0x16, 0x00, 0x00, 0x00,
  0x00, 0x00, 0x00, 0x09, 0x5c, 0x00, 0x00, 0x00, 0xdc, 0xf3, 0xff, 0xff,
  0x08, 0x00, 0x00, 0x00, 0x10, 0x00, 0x00, 0x00, 0x01, 0x00, 0x00, 0x00,
  0x0e, 0x00, 0x00, 0x00, 0x00, 0x00, 0x00, 0x00, 0x01, 0x00, 0x00, 0x00,
  0xec, 0xe5, 0x0a, 0x3e, 0x32, 0x00, 0x00, 0x00, 0x73, 0x65, 0x71, 0x75,
  0x65, 0x6e, 0x74, 0x69, 0x61, 0x6c, 0x2f, 0x79, 0x5f, 0x70, 0x72, 0x65,
  0x64, 0x2f, 0x4d, 0x61, 0x74, 0x4d, 0x75, 0x6c, 0x3b, 0x73, 0x65, 0x71,
  0x75, 0x65, 0x6e, 0x74, 0x69, 0x61, 0x6c, 0x2f, 0x79, 0x5f, 0x70, 0x72,
  0x65, 0x64, 0x2f, 0x42, 0x69, 0x61, 0x73, 0x41, 0x64, 0x64, 0x00, 0x00,
  0x02, 0x00, 0x00, 0x00, 0x01, 0x00, 0x00, 0x00, 0x04, 0x00, 0x00, 0x00,
  0x72, 0xf4, 0xff, 0xff, 0x00, 0x00, 0x00, 0x01, 0x14, 0x00, 0x00, 0x00,
  0x30, 0x00, 0x00, 0x00, 0x15, 0x00, 0x00, 0x00, 0x00, 0x00, 0x00, 0x09,
  0x44, 0x00, 0x00, 0x00, 0x5c, 0xf4, 0xff, 0xff, 0x08, 0x00, 0x00, 0x00,
  0x10, 0x00, 0x00, 0x00, 0x01, 0x00, 0x00, 0x00, 0x80, 0xff, 0xff, 0xff,
  0xff, 0xff, 0xff, 0xff, 0x01, 0x00, 0x00, 0x00, 0x99, 0x66, 0xb0, 0x3c,
  0x1a, 0x00, 0x00, 0x00, 0x73, 0x65, 0x71, 0x75, 0x65, 0x6e, 0x74, 0x69,
  0x61, 0x6c, 0x2f, 0x66, 0x6c, 0x61, 0x74, 0x74, 0x65, 0x6e, 0x2f, 0x52,
  0x65, 0x73, 0x68, 0x61, 0x70, 0x65, 0x00, 0x00, 0x02, 0x00, 0x00, 0x00,
  0x01, 0x00, 0x00, 0x00, 0x00, 0x01, 0x00, 0x00, 0xda, 0xf4, 0xff, 0xff,
  0x00, 0x00, 0x00, 0x01, 0x14, 0x00, 0x00, 0x00, 0x30, 0x00, 0x00, 0x00,
  0x14, 0x00, 0x00, 0x00, 0x00, 0x00, 0x00, 0x09, 0x4c, 0x00, 0x00, 0x00,
  0xc4, 0xf4, 0xff, 0xff, 0x08, 0x00, 0x00, 0x00, 0x10, 0x00, 0x00, 0x00,
  0x01, 0x00, 0x00, 0x00, 0x80, 0xff, 0xff, 0xff, 0xff, 0xff, 0xff, 0xff,
  0x01, 0x00, 0x00, 0x00, 0x99, 0x66, 0xb0, 0x3c, 0x22, 0x00, 0x00, 0x00,
  0x73, 0x65, 0x71, 0x75, 0x65, 0x6e, 0x74, 0x69, 0x61, 0x6c, 0x2f, 0x6d,
  0x61, 0x78, 0x5f, 0x70, 0x6f, 0x6f, 0x6c, 0x69, 0x6e, 0x67, 0x31, 0x64,
  0x5f, 0x31, 0x2f, 0x4d, 0x61, 0x78, 0x50, 0x6f, 0x6f, 0x6c, 0x00, 0x00,
  0x04, 0x00, 0x00, 0x00, 0x01, 0x00, 0x00, 0x00, 0x10, 0x00, 0x00, 0x00,
  0x01, 0x00, 0x00, 0x00, 0x10, 0x00, 0x00, 0x00, 0x52, 0xf5, 0xff, 0xff,
  0x00, 0x00, 0x00, 0x01, 0x14, 0x00, 0x00, 0x00, 0x34, 0x00, 0x00, 0x00,
  0x13, 0x00, 0x00, 0x00, 0x00, 0x00, 0x00, 0x09, 0x54, 0x00, 0x00, 0x00,
  0x3c, 0xf5, 0xff, 0xff, 0x08, 0x00, 0x00, 0x00, 0x14, 0x00, 0x00, 0x00,
  0x01, 0x00, 0x00, 0x00, 0x80, 0xff, 0xff, 0xff, 0xff, 0xff, 0xff, 0xff,
  0x00, 0x00, 0x00, 0x00, 0x01, 0x00, 0x00, 0x00, 0x99, 0x66, 0xb0, 0x3c,
  0x26, 0x00, 0x00, 0x00, 0x73, 0x65, 0x71, 0x75, 0x65, 0x6e, 0x74, 0x69,
  0x61, 0x6c, 0x2f, 0x6d, 0x61, 0x78, 0x5f, 0x70, 0x6f, 0x6f, 0x6c, 0x69,
  0x6e, 0x67, 0x31, 0x64, 0x5f, 0x31, 0x2f, 0x45, 0x78, 0x70, 0x61, 0x6e,
  0x64, 0x44, 0x69, 0x6d, 0x73, 0x31, 0x00, 0x00, 0x04, 0x00, 0x00, 0x00,
  0x01, 0x00, 0x00, 0x00, 0x1f, 0x00, 0x00, 0x00, 0x01, 0x00, 0x00, 0x00,
  0x10, 0x00, 0x00, 0x00, 0xd2, 0xf5, 0xff, 0xff, 0x00, 0x00, 0x00, 0x01,
  0x14, 0x00, 0x00, 0x00, 0x34, 0x00, 0x00, 0x00, 0x12, 0x00, 0x00, 0x00,
  0x00, 0x00, 0x00, 0x09, 0xcc, 0x00, 0x00, 0x00, 0xbc, 0xf5, 0xff, 0xff,
  0x08, 0x00, 0x00, 0x00, 0x14, 0x00, 0x00, 0x00, 0x01, 0x00, 0x00, 0x00,
  0x80, 0xff, 0xff, 0xff, 0xff, 0xff, 0xff, 0xff, 0x00, 0x00, 0x00, 0x00,
  0x01, 0x00, 0x00, 0x00, 0x99, 0x66, 0xb0, 0x3c, 0x9d, 0x00, 0x00, 0x00,
  0x73, 0x65, 0x71, 0x75, 0x65, 0x6e, 0x74, 0x69, 0x61, 0x6c, 0x2f, 0x63,
  0x6f, 0x6e, 0x76, 0x31, 0x64, 0x5f, 0x31, 0x2f, 0x52, 0x65, 0x6c, 0x75,
  0x3b, 0x73, 0x65, 0x71, 0x75, 0x65, 0x6e, 0x74, 0x69, 0x61, 0x6c, 0x2f,
  0x63, 0x6f, 0x6e, 0x76, 0x31, 0x64, 0x5f, 0x31, 0x2f, 0x42, 0x69, 0x61,
  0x73, 0x41, 0x64, 0x64, 0x3b, 0x73, 0x65, 0x71, 0x75, 0x65, 0x6e, 0x74,
  0x69, 0x61, 0x6c, 0x2f, 0x63, 0x6f, 0x6e, 0x76, 0x31, 0x64, 0x5f, 0x31,
  0x2f, 0x43, 0x6f, 0x6e, 0x76, 0x31, 0x44, 0x2f, 0x53, 0x71, 0x75, 0x65,
  0x65, 0x7a, 0x65, 0x3b, 0x73, 0x65, 0x71, 0x75, 0x65, 0x6e, 0x74, 0x69,
  0x61, 0x6c, 0x2f, 0x63, 0x6f, 0x6e, 0x76, 0x31, 0x64, 0x5f, 0x31, 0x2f,
  0x42, 0x69, 0x61, 0x73, 0x41, 0x64, 0x64, 0x2f, 0x52, 0x65, 0x61, 0x64,
  0x56, 0x61, 0x72, 0x69, 0x61, 0x62, 0x6c, 0x65, 0x4f, 0x70, 0x3b, 0x73,
  0x65, 0x71, 0x75, 0x65, 0x6e, 0x74, 0x69, 0x61, 0x6c, 0x2f, 0x63, 0x6f,
  0x6e, 0x76, 0x31, 0x64, 0x5f, 0x31, 0x2f, 0x43, 0x6f, 0x6e, 0x76, 0x31,
  0x44, 0x00, 0x00, 0x00, 0x04, 0x00, 0x00, 0x00, 0x01, 0x00, 0x00, 0x00,
  0x01, 0x00, 0x00, 0x00, 0x1f, 0x00, 0x00, 0x00, 0x10, 0x00, 0x00, 0x00,
  0xca, 0xf6, 0xff, 0xff, 0x00, 0x00, 0x00, 0x01, 0x14, 0x00, 0x00, 0x00,
  0x34, 0x00, 0x00, 0x00, 0x11, 0x00, 0x00, 0x00, 0x00, 0x00, 0x00, 0x09,
  0x54, 0x00, 0x00, 0x00, 0xb4, 0xf6, 0xff, 0xff, 0x08, 0x00, 0x00, 0x00,
  0x14, 0x00, 0x00, 0x00, 0x01, 0x00, 0x00, 0x00, 0x80, 0xff, 0xff, 0xff,
  0xff, 0xff, 0xff, 0xff, 0x00, 0x00, 0x00, 0x00, 0x01, 0x00, 0x00, 0x00,
  0x6c, 0x69, 0x54, 0x3d, 0x26, 0x00, 0x00, 0x00, 0x73, 0x65, 0x71, 0x75,
  0x65, 0x6e, 0x74, 0x69, 0x61, 0x6c, 0x2f, 0x63, 0x6f, 0x6e, 0x76, 0x31,
  0x64, 0x5f, 0x31, 0x2f, 0x43, 0x6f, 0x6e, 0x76, 0x31, 0x44, 0x2f, 0x45,
  0x78, 0x70, 0x61, 0x6e, 0x64, 0x44, 0x69, 0x6d, 0x73, 0x31, 0x00, 0x00,
  0x04, 0x00, 0x00, 0x00, 0x01, 0x00, 0x00, 0x00, 0x01, 0x00, 0x00, 0x00,
  0x1f, 0x00, 0x00, 0x00, 0x08, 0x00, 0x00, 0x00, 0x4a, 0xf7, 0xff, 0xff,
  0x00, 0x00, 0x00, 0x01, 0x14, 0x00, 0x00, 0x00, 0x30, 0x00, 0x00, 0x00,
  0x10, 0x00, 0x00, 0x00, 0x00, 0x00, 0x00, 0x09, 0x4c, 0x00, 0x00, 0x00,
  0x34, 0xf7, 0xff, 0xff, 0x08, 0x00, 0x00, 0x00, 0x10, 0x00, 0x00, 0x00,
  0x01, 0x00, 0x00, 0x00, 0x80, 0xff, 0xff, 0xff, 0xff, 0xff, 0xff, 0xff,
  0x01, 0x00, 0x00, 0x00, 0x6c, 0x69, 0x54, 0x3d, 0x20, 0x00, 0x00, 0x00,
  0x73, 0x65, 0x71, 0x75, 0x65, 0x6e, 0x74, 0x69, 0x61, 0x6c, 0x2f, 0x6d,
  0x61, 0x78, 0x5f, 0x70, 0x6f, 0x6f, 0x6c, 0x69, 0x6e, 0x67, 0x31, 0x64,
  0x2f, 0x4d, 0x61, 0x78, 0x50, 0x6f, 0x6f, 0x6c, 0x00, 0x00, 0x00, 0x00,
  0x04, 0x00, 0x00, 0x00, 0x01, 0x00, 0x00, 0x00, 0x1f, 0x00, 0x00, 0x00,
  0x01, 0x00, 0x00, 0x00, 0x08, 0x00, 0x00, 0x00, 0xc2, 0xf7, 0xff, 0xff,
  0x00, 0x00, 0x00, 0x01, 0x14, 0x00, 0x00, 0x00, 0x34, 0x00, 0x00, 0x00,
  0x0f, 0x00, 0x00, 0x00, 0x00, 0x00, 0x00, 0x09, 0x54, 0x00, 0x00, 0x00,
  0xac, 0xf7, 0xff, 0xff, 0x08, 0x00, 0x00, 0x00, 0x14, 0x00, 0x00, 0x00,
  0x01, 0x00, 0x00, 0x00, 0x80, 0xff, 0xff, 0xff, 0xff, 0xff, 0xff, 0xff,
  0x00, 0x00, 0x00, 0x00, 0x01, 0x00, 0x00, 0x00, 0x6c, 0x69, 0x54, 0x3d,
  0x24, 0x00, 0x00, 0x00, 0x73, 0x65, 0x71, 0x75, 0x65, 0x6e, 0x74, 0x69,
  0x61, 0x6c, 0x2f, 0x6d, 0x61, 0x78, 0x5f, 0x70, 0x6f, 0x6f, 0x6c, 0x69,
  0x6e, 0x67, 0x31, 0x64, 0x2f, 0x45, 0x78, 0x70, 0x61, 0x6e, 0x64, 0x44,
  0x69, 0x6d, 0x73, 0x31, 0x00, 0x00, 0x00, 0x00, 0x04, 0x00, 0x00, 0x00,
  0x01, 0x00, 0x00, 0x00, 0x3d, 0x00, 0x00, 0x00, 0x01, 0x00, 0x00, 0x00,
  0x08, 0x00, 0x00, 0x00, 0x42, 0xf8, 0xff, 0xff, 0x00, 0x00, 0x00, 0x01,
  0x14, 0x00, 0x00, 0x00, 0x30, 0x00, 0x00, 0x00, 0x0e, 0x00, 0x00, 0x00,
  0x00, 0x00, 0x00, 0x09, 0xbc, 0x00, 0x00, 0x00, 0x2c, 0xf8, 0xff, 0xff,
  0x08, 0x00, 0x00, 0x00, 0x10, 0x00, 0x00, 0x00, 0x01, 0x00, 0x00, 0x00,
  0x80, 0xff, 0xff, 0xff, 0xff, 0xff, 0xff, 0xff, 0x01, 0x00, 0x00, 0x00,
  0x6c, 0x69, 0x54, 0x3d, 0x93, 0x00, 0x00, 0x00, 0x73, 0x65, 0x71, 0x75,
  0x65, 0x6e, 0x74, 0x69, 0x61, 0x6c, 0x2f, 0x63, 0x6f, 0x6e, 0x76, 0x31,
  0x64, 0x2f, 0x52, 0x65, 0x6c, 0x75, 0x3b, 0x73, 0x65, 0x71, 0x75, 0x65,
  0x6e, 0x74, 0x69, 0x61, 0x6c, 0x2f, 0x63, 0x6f, 0x6e, 0x76, 0x31, 0x64,
  0x2f, 0x42, 0x69, 0x61, 0x73, 0x41, 0x64, 0x64, 0x3b, 0x73, 0x65, 0x71,
  0x75, 0x65, 0x6e, 0x74, 0x69, 0x61, 0x6c, 0x2f, 0x63, 0x6f, 0x6e, 0x76,
  0x31, 0x64, 0x2f, 0x43, 0x6f, 0x6e, 0x76, 0x31, 0x44, 0x2f, 0x53, 0x71,
  0x75, 0x65, 0x65, 0x7a, 0x65, 0x3b, 0x73, 0x65, 0x71, 0x75, 0x65, 0x6e,
  0x74, 0x69, 0x61, 0x6c, 0x2f, 0x63, 0x6f, 0x6e, 0x76, 0x31, 0x64, 0x2f,
  0x42, 0x69, 0x61, 0x73, 0x41, 0x64, 0x64, 0x2f, 0x52, 0x65, 0x61, 0x64,
  0x56, 0x61, 0x72, 0x69, 0x61, 0x62, 0x6c, 0x65, 0x4f, 0x70, 0x3b, 0x73,
  0x65, 0x71, 0x75, 0x65, 0x6e, 0x74, 0x69, 0x61, 0x6c, 0x2f, 0x63, 0x6f,
  0x6e, 0x76, 0x31, 0x64, 0x2f, 0x43, 0x6f, 0x6e, 0x76, 0x31, 0x44, 0x00,
  0x04, 0x00, 0x00, 0x00, 0x01, 0x00, 0x00, 0x00, 0x01, 0x00, 0x00, 0x00,
  0x3d, 0x00, 0x00, 0x00, 0x08, 0x00, 0x00, 0x00, 0x2a, 0xf9, 0xff, 0xff,
  0x00, 0x00, 0x00, 0x01, 0x14, 0x00, 0x00, 0x00, 0x34, 0x00, 0x00, 0x00,
  0x0d, 0x00, 0x00, 0x00, 0x00, 0x00, 0x00, 0x09, 0x54, 0x00, 0x00, 0x00,
  0x14, 0xf9, 0xff, 0xff, 0x08, 0x00, 0x00, 0x00, 0x14, 0x00, 0x00, 0x00,
  0x01, 0x00, 0x00, 0x00, 0x0e, 0x00, 0x00, 0x00, 0x00, 0x00, 0x00, 0x00,
  0x00, 0x00, 0x00, 0x00, 0x01, 0x00, 0x00, 0x00, 0x79, 0x7f, 0x3b, 0x3d,
  0x24, 0x00, 0x00, 0x00, 0x73, 0x65, 0x71, 0x75, 0x65, 0x6e, 0x74, 0x69,
  0x61, 0x6c, 0x2f, 0x63, 0x6f, 0x6e, 0x76, 0x31, 0x64, 0x2f, 0x43, 0x6f,
  0x6e, 0x76, 0x31, 0x44, 0x2f, 0x45, 0x78, 0x70, 0x61, 0x6e, 0x64, 0x44,
  0x69, 0x6d, 0x73, 0x31, 0x00, 0x00, 0x00, 0x00, 0x04, 0x00, 0x00, 0x00,
  0x01, 0x00, 0x00, 0x00, 0x01, 0x00, 0x00, 0x00, 0x3d, 0x00, 0x00, 0x00,
  0x0d, 0x00, 0x00, 0x00, 0xaa, 0xf9, 0xff, 0xff, 0x00, 0x00, 0x00, 0x01,
  0x14, 0x00, 0x00, 0x00, 0x88, 0x00, 0x00, 0x00, 0x0c, 0x00, 0x00, 0x00,
  0x00, 0x00, 0x00, 0x09, 0x9c, 0x00, 0x00, 0x00, 0x94, 0xf9, 0xff, 0xff,
  0x08, 0x00, 0x00, 0x00, 0x4c, 0x00, 0x00, 0x00, 0x08, 0x00, 0x00, 0x00,
  0x00, 0x00, 0x00, 0x00, 0x00, 0x00, 0x00, 0x00, 0x00, 0x00, 0x00, 0x00,
  0x00, 0x00, 0x00, 0x00, 0x00, 0x00, 0x00, 0x00, 0x00, 0x00, 0x00, 0x00,
  0x00, 0x00, 0x00, 0x00, 0x00, 0x00, 0x00, 0x00, 0x00, 0x00, 0x00, 0x00,
  0x00, 0x00, 0x00, 0x00, 0x00, 0x00, 0x00, 0x00, 0x00, 0x00, 0x00, 0x00,
  0x00, 0x00, 0x00, 0x00, 0x00, 0x00, 0x00, 0x00, 0x00, 0x00, 0x00, 0x00,
  0x00, 0x00, 0x00, 0x00, 0x00, 0x00, 0x00, 0x00, 0x08, 0x00, 0x00, 0x00,
  0xbc, 0xe2, 0x12, 0x3c, 0xb8, 0xe3, 0xdb, 0x3b, 0x30, 0xd0, 0xe8, 0x3b,
  0x38, 0xc2, 0xbe, 0x3b, 0xa2, 0xa4, 0xdc, 0x3b, 0xf4, 0x98, 0x83, 0x3b,
  0xf6, 0x17, 0x8b, 0x3b, 0xf5, 0xd7, 0x94, 0x3b, 0x18, 0x00, 0x00, 0x00,
  0x73, 0x65, 0x71, 0x75, 0x65, 0x6e, 0x74, 0x69, 0x61, 0x6c, 0x2f, 0x63,
  0x6f, 0x6e, 0x76, 0x31, 0x64, 0x2f, 0x43, 0x6f, 0x6e, 0x76, 0x31, 0x44,
  0x00, 0x00, 0x00, 0x00, 0x04, 0x00, 0x00, 0x00, 0x08, 0x00, 0x00, 0x00,
  0x01, 0x00, 0x00, 0x00, 0x03, 0x00, 0x00, 0x00, 0x0d, 0x00, 0x00, 0x00,
  0x72, 0xfa, 0xff, 0xff, 0x00, 0x00, 0x00, 0x01, 0x14, 0x00, 0x00, 0x00,
  0x84, 0x00, 0x00, 0x00, 0x0b, 0x00, 0x00, 0x00, 0x00, 0x00, 0x00, 0x02,
  0xa8, 0x00, 0x00, 0x00, 0x5c, 0xfa, 0xff, 0xff, 0x08, 0x00, 0x00, 0x00,
  0x48, 0x00, 0x00, 0x00, 0x08, 0x00, 0x00, 0x00, 0x00, 0x00, 0x00, 0x00,
  0x00, 0x00, 0x00, 0x00, 0x00, 0x00, 0x00, 0x00, 0x00, 0x00, 0x00, 0x00,
  0x00, 0x00, 0x00, 0x00, 0x00, 0x00, 0x00, 0x00, 0x00, 0x00, 0x00, 0x00,
  0x00, 0x00, 0x00, 0x00, 0x00, 0x00, 0x00, 0x00, 0x00, 0x00, 0x00, 0x00,
  0x00, 0x00, 0x00, 0x00, 0x00, 0x00, 0x00, 0x00, 0x00, 0x00, 0x00, 0x00,
  0x00, 0x00, 0x00, 0x00, 0x00, 0x00, 0x00, 0x00, 0x00, 0x00, 0x00, 0x00,
  0x08, 0x00, 0x00, 0x00, 0x86, 0x29, 0xd7, 0x39, 0xd5, 0x0c, 0xa1, 0x39,
  0x00, 0x84, 0xaa, 0x39, 0xdb, 0xb6, 0x8b, 0x39, 0x20, 0x9a, 0xa1, 0x39,
  0x83, 0xc4, 0x40, 0x39, 0x87, 0xbf, 0x4b, 0x39, 0xbb, 0x07, 0x5a, 0x39,
  0x28, 0x00, 0x00, 0x00, 0x73, 0x65, 0x71, 0x75, 0x65, 0x6e, 0x74, 0x69,
  0x61, 0x6c, 0x2f, 0x63, 0x6f, 0x6e, 0x76, 0x31, 0x64, 0x2f, 0x42, 0x69,
  0x61, 0x73, 0x41, 0x64, 0x64, 0x2f, 0x52, 0x65, 0x61, 0x64, 0x56, 0x61,
  0x72, 0x69, 0x61, 0x62, 0x6c, 0x65, 0x4f, 0x70, 0x00, 0x00, 0x00, 0x00,
  0x01, 0x00, 0x00, 0x00, 0x08, 0x00, 0x00, 0x00, 0x3a, 0xfb, 0xff, 0xff,
  0x00, 0x00, 0x00, 0x01, 0x14, 0x00, 0x00, 0x00, 0xe8, 0x00, 0x00, 0x00,
  0x0a, 0x00, 0x00, 0x00, 0x00, 0x00, 0x00, 0x09, 0xfc, 0x00, 0x00, 0x00,
  0x24, 0xfb, 0xff, 0xff, 0x08, 0x00, 0x00, 0x00, 0x8c, 0x00, 0x00, 0x00,
  0x10, 0x00, 0x00, 0x00, 0x00, 0x00, 0x00, 0x00, 0x00, 0x00, 0x00, 0x00,
  0x00, 0x00, 0x00, 0x00, 0x00, 0x00, 0x00, 0x00, 0x00, 0x00, 0x00, 0x00,
  0x00, 0x00, 0x00, 0x00, 0x00, 0x00, 0x00, 0x00, 0x00, 0x00, 0x00, 0x00,
  0x00, 0x00, 0x00, 0x00, 0x00, 0x00, 0x00, 0x00, 0x00, 0x00, 0x00, 0x00,
  0x00, 0x00, 0x00, 0x00, 0x00, 0x00, 0x00, 0x00, 0x00, 0x00, 0x00, 0x00,
  0x00, 0x00, 0x00, 0x00, 0x00, 0x00, 0x00, 0x00, 0x00, 0x00, 0x00, 0x00,
  0x00, 0x00, 0x00, 0x00, 0x00, 0x00, 0x00, 0x00, 0x00, 0x00, 0x00, 0x00,
  0x00, 0x00, 0x00, 0x00, 0x00, 0x00, 0x00, 0x00, 0x00, 0x00, 0x00, 0x00,
  0x00, 0x00, 0x00, 0x00, 0x00, 0x00, 0x00, 0x00, 0x00, 0x00, 0x00, 0x00,
  0x00, 0x00, 0x00, 0x00, 0x00, 0x00, 0x00, 0x00, 0x00, 0x00, 0x00, 0x00,
  0x00, 0x00, 0x00, 0x00, 0x00, 0x00, 0x00, 0x00, 0x00, 0x00, 0x00, 0x00,
  0x00, 0x00, 0x00, 0x00, 0x10, 0x00, 0x00, 0x00, 0x02, 0xe1, 0xd4, 0x3b,
  0x19, 0x28, 0xa6, 0x3b, 0xc4, 0x3d, 0xe0, 0x3b, 0x1e, 0xb2, 0xfb, 0x3b,
  0x6b, 0xd9, 0xba, 0x3b, 0x64, 0x0c, 0x6a, 0x3b, 0xd3, 0xb3, 0x21, 0x3c,
  0x94, 0x71, 0xbf, 0x3b, 0xe7, 0x0e, 0xd2, 0x3b, 0xdd, 0x4f, 0xbb, 0x3b,
  0x66, 0x32, 0x1c, 0x3c, 0x8d, 0x3b, 0x20, 0x3c, 0x6a, 0x16, 0xb5, 0x3b,
  0xaa, 0xbd, 0x2b, 0x3c, 0x34, 0xfa, 0x80, 0x3b, 0xf9, 0x53, 0xd5, 0x3b,
  0x1a, 0x00, 0x00, 0x00, 0x73, 0x65, 0x71, 0x75, 0x65, 0x6e, 0x74, 0x69,
  0x61, 0x6c, 0x2f, 0x63, 0x6f, 0x6e, 0x76, 0x31, 0x64, 0x5f, 0x31, 0x2f,
  0x43, 0x6f, 0x6e, 0x76, 0x31, 0x44, 0x00, 0x00, 0x04, 0x00, 0x00, 0x00,
  0x10, 0x00, 0x00, 0x00, 0x01, 0x00, 0x00, 0x00, 0x03, 0x00, 0x00, 0x00,
  0x08, 0x00, 0x00, 0x00, 0x62, 0xfc, 0xff, 0xff, 0x00, 0x00, 0x00, 0x01,
  0x14, 0x00, 0x00, 0x00, 0xe4, 0x00, 0x00, 0x00, 0x09, 0x00, 0x00, 0x00,
  0x00, 0x00, 0x00, 0x02, 0x08, 0x01, 0x00, 0x00, 0x4c, 0xfc, 0xff, 0xff,
  0x08, 0x00, 0x00, 0x00, 0x88, 0x00, 0x00, 0x00, 0x10, 0x00, 0x00, 0x00,
  0x00, 0x00, 0x00, 0x00, 0x00, 0x00, 0x00, 0x00, 0x00, 0x00, 0x00, 0x00,
  0x00, 0x00, 0x00, 0x00, 0x00, 0x00, 0x00, 0x00, 0x00, 0x00, 0x00, 0x00,
  0x00, 0x00, 0x00, 0x00, 0x00, 0x00, 0x00, 0x00, 0x00, 0x00, 0x00, 0x00,
  0x00, 0x00, 0x00, 0x00, 0x00, 0x00, 0x00, 0x00, 0x00, 0x00, 0x00, 0x00,
  0x00, 0x00, 0x00, 0x00, 0x00, 0x00, 0x00, 0x00, 0x00, 0x00, 0x00, 0x00,
  0x00, 0x00, 0x00, 0x00, 0x00, 0x00, 0x00, 0x00, 0x00, 0x00, 0x00, 0x00,
  0x00, 0x00, 0x00, 0x00, 0x00, 0x00, 0x00, 0x00, 0x00, 0x00, 0x00, 0x00,
  0x00, 0x00, 0x00, 0x00, 0x00, 0x00, 0x00, 0x00, 0x00, 0x00, 0x00, 0x00,
  0x00, 0x00, 0x00, 0x00, 0x00, 0x00, 0x00, 0x00, 0x00, 0x00, 0x00, 0x00,
  0x00, 0x00, 0x00, 0x00, 0x00, 0x00, 0x00, 0x00, 0x00, 0x00, 0x00, 0x00,
  0x00, 0x00, 0x00, 0x00, 0x00, 0x00, 0x00, 0x00, 0x10, 0x00, 0x00, 0x00,
  0x00, 0xa2, 0xb0, 0x39, 0xa1, 0xdd, 0x89, 0x39, 0x7e, 0x0f, 0xba, 0x39,
  0x27, 0xd7, 0xd0, 0x39, 0xff, 0x08, 0x9b, 0x39, 0xa5, 0x32, 0x42, 0x39,
  0x82, 0x2b, 0x06, 0x3a, 0xe5, 0xd8, 0x9e, 0x39, 0xd8, 0x4a, 0xae, 0x39,
  0x46, 0x6b, 0x9b, 0x39, 0x0f, 0x9a, 0x01, 0x3a, 0x4d, 0xf3, 0x04, 0x3a,
  0x22, 0x41, 0x96, 0x39, 0xca, 0x7f, 0x0e, 0x3a, 0xa0, 0x08, 0x56, 0x39,
  0x64, 0x01, 0xb1, 0x39, 0x2a, 0x00, 0x00, 0x00, 0x73, 0x65, 0x71, 0x75,
  0x65, 0x6e, 0x74, 0x69, 0x61, 0x6c, 0x2f, 0x63, 0x6f, 0x6e, 0x76, 0x31,
  0x64, 0x5f, 0x31, 0x2f, 0x42, 0x69, 0x61, 0x73, 0x41, 0x64, 0x64, 0x2f,
  0x52, 0x65, 0x61, 0x64, 0x56, 0x61, 0x72, 0x69, 0x61, 0x62, 0x6c, 0x65,
  0x4f, 0x70, 0x00, 0x00, 0x01, 0x00, 0x00, 0x00, 0x10, 0x00, 0x00, 0x00,
  0x8a, 0xfd, 0xff, 0xff, 0x00, 0x00, 0x00, 0x01, 0x14, 0x00, 0x00, 0x00,
  0x30, 0x00, 0x00, 0x00, 0x08, 0x00, 0x00, 0x00, 0x00, 0x00, 0x00, 0x09,
  0x44, 0x00, 0x00, 0x00, 0x74, 0xfd, 0xff, 0xff, 0x08, 0x00, 0x00, 0x00,
  0x10, 0x00, 0x00, 0x00, 0x01, 0x00, 0x00, 0x00, 0x00, 0x00, 0x00, 0x00,
  0x00, 0x00, 0x00, 0x00, 0x01, 0x00, 0x00, 0x00, 0x94, 0xe3, 0x16, 0x3c,
  0x18, 0x00, 0x00, 0x00, 0x73, 0x65, 0x71, 0x75, 0x65, 0x6e, 0x74, 0x69,
  0x61, 0x6c, 0x2f, 0x79, 0x5f, 0x70, 0x72, 0x65, 0x64, 0x2f, 0x4d, 0x61,
  0x74, 0x4d, 0x75, 0x6c, 0x00, 0x00, 0x00, 0x00, 0x02, 0x00, 0x00, 0x00,
  0x04, 0x00, 0x00, 0x00, 0x00, 0x01, 0x00, 0x00, 0xf2, 0xfd, 0xff, 0xff,
  0x00, 0x00, 0x00, 0x01, 0x14, 0x00, 0x00, 0x00, 0x34, 0x00, 0x00, 0x00,
  0x07, 0x00, 0x00, 0x00, 0x00, 0x00, 0x00, 0x02, 0x58, 0x00, 0x00, 0x00,
  0xdc, 0xfd, 0xff, 0xff, 0x08, 0x00, 0x00, 0x00, 0x14, 0x00, 0x00, 0x00,
  0x01, 0x00, 0x00, 0x00, 0x00, 0x00, 0x00, 0x00, 0x00, 0x00, 0x00, 0x00,
  0x00, 0x00, 0x00, 0x00, 0x01, 0x00, 0x00, 0x00, 0xdd, 0xf1, 0x4f, 0x39,
  0x28, 0x00, 0x00, 0x00, 0x73, 0x65, 0x71, 0x75, 0x65, 0x6e, 0x74, 0x69,
  0x61, 0x6c, 0x2f, 0x79, 0x5f, 0x70, 0x72, 0x65, 0x64, 0x2f, 0x42, 0x69,
  0x61, 0x73, 0x41, 0x64, 0x64, 0x2f, 0x52, 0x65, 0x61, 0x64, 0x56, 0x61,
  0x72, 0x69, 0x61, 0x62, 0x6c, 0x65, 0x4f, 0x70, 0x00, 0x00, 0x00, 0x00,
  0x01, 0x00, 0x00, 0x00, 0x04, 0x00, 0x00, 0x00, 0x6a, 0xfe, 0xff, 0xff,
  0x00, 0x00, 0x00, 0x01, 0x14, 0x00, 0x00, 0x00, 0x14, 0x00, 0x00, 0x00,
  0x06, 0x00, 0x00, 0x00, 0x00, 0x00, 0x00, 0x02, 0x28, 0x00, 0x00, 0x00,
  0xc0, 0xfe, 0xff, 0xff, 0x18, 0x00, 0x00, 0x00, 0x73, 0x65, 0x71, 0x75,
  0x65, 0x6e, 0x74, 0x69, 0x61, 0x6c, 0x2f, 0x66, 0x6c, 0x61, 0x74, 0x74,
  0x65, 0x6e, 0x2f, 0x43, 0x6f, 0x6e, 0x73, 0x74, 0x00, 0x00, 0x00, 0x00,
  0x01, 0x00, 0x00, 0x00, 0x02, 0x00, 0x00, 0x00, 0xb2, 0xfe, 0xff, 0xff,
  0x00, 0x00, 0x00, 0x01, 0x14, 0x00, 0x00, 0x00, 0x14, 0x00, 0x00, 0x00,
  0x05, 0x00, 0x00, 0x00, 0x00, 0x00, 0x00, 0x02, 0x34, 0x00, 0x00, 0x00,
  0x08, 0xff, 0xff, 0xff, 0x25, 0x00, 0x00, 0x00, 0x73, 0x65, 0x71, 0x75,
  0x65, 0x6e, 0x74, 0x69, 0x61, 0x6c, 0x2f, 0x6d, 0x61, 0x78, 0x5f, 0x70,
  0x6f, 0x6f, 0x6c, 0x69, 0x6e, 0x67, 0x31, 0x64, 0x5f, 0x31, 0x2f, 0x45,
  0x78, 0x70, 0x61, 0x6e, 0x64, 0x44, 0x69, 0x6d, 0x73, 0x00, 0x00, 0x00,
  0x01, 0x00, 0x00, 0x00, 0x04, 0x00, 0x00, 0x00, 0x06, 0xff, 0xff, 0xff,
  0x00, 0x00, 0x00, 0x01, 0x14, 0x00, 0x00, 0x00, 0x14, 0x00, 0x00, 0x00,
  0x04, 0x00, 0x00, 0x00, 0x00, 0x00, 0x00, 0x02, 0x34, 0x00, 0x00, 0x00,
  0x5c, 0xff, 0xff, 0xff, 0x25, 0x00, 0x00, 0x00, 0x73, 0x65, 0x71, 0x75,
  0x65, 0x6e, 0x74, 0x69, 0x61, 0x6c, 0x2f, 0x63, 0x6f, 0x6e, 0x76, 0x31,
  0x64, 0x5f, 0x31, 0x2f, 0x43, 0x6f, 0x6e, 0x76, 0x31, 0x44, 0x2f, 0x45,
  0x78, 0x70, 0x61, 0x6e, 0x64, 0x44, 0x69, 0x6d, 0x73, 0x00, 0x00, 0x00,
  0x01, 0x00, 0x00, 0x00, 0x04, 0x00, 0x00, 0x00, 0x5a, 0xff, 0xff, 0xff,
  0x00, 0x00, 0x00, 0x01, 0x14, 0x00, 0x00, 0x00, 0x14, 0x00, 0x00, 0x00,
  0x03, 0x00, 0x00, 0x00, 0x00, 0x00, 0x00, 0x02, 0x30, 0x00, 0x00, 0x00,
  0xb0, 0xff, 0xff, 0xff, 0x23, 0x00, 0x00, 0x00, 0x73, 0x65, 0x71, 0x75,
  0x65, 0x6e, 0x74, 0x69, 0x61, 0x6c, 0x2f, 0x6d, 0x61, 0x78, 0x5f, 0x70,
  0x6f, 0x6f, 0x6c, 0x69, 0x6e, 0x67, 0x31, 0x64, 0x2f, 0x45, 0x78, 0x70,
  0x61, 0x6e, 0x64, 0x44, 0x69, 0x6d, 0x73, 0x00, 0x01, 0x00, 0x00, 0x00,
  0x04, 0x00, 0x00, 0x00, 0xaa, 0xff, 0xff, 0xff, 0x00, 0x00, 0x00, 0x01,
  0x18, 0x00, 0x00, 0x00, 0x18, 0x00, 0x00, 0x00, 0x02, 0x00, 0x00, 0x00,
  0x00, 0x00, 0x00, 0x02, 0x34, 0x00, 0x00, 0x00, 0x04, 0x00, 0x04, 0x00,
  0x04, 0x00, 0x00, 0x00, 0x23, 0x00, 0x00, 0x00, 0x73, 0x65, 0x71, 0x75,
  0x65, 0x6e, 0x74, 0x69, 0x61, 0x6c, 0x2f, 0x63, 0x6f, 0x6e, 0x76, 0x31,
  0x64, 0x2f, 0x43, 0x6f, 0x6e, 0x76, 0x31, 0x44, 0x2f, 0x45, 0x78, 0x70,
  0x61, 0x6e, 0x64, 0x44, 0x69, 0x6d, 0x73, 0x00, 0x01, 0x00, 0x00, 0x00,
  0x04, 0x00, 0x00, 0x00, 0x00, 0x00, 0x16, 0x00, 0x1c, 0x00, 0x18, 0x00,
  0x17, 0x00, 0x10, 0x00, 0x0c, 0x00, 0x08, 0x00, 0x00, 0x00, 0x00, 0x00,
  0x00, 0x00, 0x07, 0x00, 0x16, 0x00, 0x00, 0x00, 0x00, 0x00, 0x00, 0x01,
  0x20, 0x00, 0x00, 0x00, 0x3c, 0x00, 0x00, 0x00, 0x01, 0x00, 0x00, 0x00,
  0x00, 0x00, 0x00, 0x09, 0x48, 0x00, 0x00, 0x00, 0x0c, 0x00, 0x0c, 0x00,
  0x00, 0x00, 0x00, 0x00, 0x08, 0x00, 0x04, 0x00, 0x0c, 0x00, 0x00, 0x00,
  0x08, 0x00, 0x00, 0x00, 0x10, 0x00, 0x00, 0x00, 0x01, 0x00, 0x00, 0x00,
  0x0e, 0x00, 0x00, 0x00, 0x00, 0x00, 0x00, 0x00, 0x01, 0x00, 0x00, 0x00,
  0x79, 0x7f, 0x3b, 0x3d, 0x13, 0x00, 0x00, 0x00, 0x73, 0x65, 0x72, 0x76,
  0x69, 0x6e, 0x67, 0x5f, 0x64, 0x65, 0x66, 0x61, 0x75, 0x6c, 0x74, 0x5f,
  0x78, 0x3a, 0x30, 0x00, 0x02, 0x00, 0x00, 0x00, 0x01, 0x00, 0x00, 0x00,
  0x19, 0x03, 0x00, 0x00, 0x05, 0x00, 0x00, 0x00, 0x6c, 0x00, 0x00, 0x00,
  0x4c, 0x00, 0x00, 0x00, 0x2c, 0x00, 0x00, 0x00, 0x18, 0x00, 0x00, 0x00,
  0x04, 0x00, 0x00, 0x00, 0xd0, 0xff, 0xff, 0xff, 0x19, 0x00, 0x00, 0x00,
  0x02, 0x00, 0x00, 0x00, 0x00, 0x00, 0x00, 0x19, 0xe0, 0xff, 0xff, 0xff,
  0x09, 0x00, 0x00, 0x00, 0x04, 0x00, 0x00, 0x00, 0x00, 0x00, 0x00, 0x09,
  0xf0, 0xff, 0xff, 0xff, 0x11, 0x00, 0x00, 0x00, 0x02, 0x00, 0x00, 0x00,
  0x00, 0x00, 0x00, 0x11, 0x0c, 0x00, 0x10, 0x00, 0x0f, 0x00, 0x00, 0x00,
  0x08, 0x00, 0x04, 0x00, 0x0c, 0x00, 0x00, 0x00, 0x03, 0x00, 0x00, 0x00,
  0x03, 0x00, 0x00, 0x00, 0x00, 0x00, 0x00, 0x03, 0x0c, 0x00, 0x0c, 0x00,
  0x0b, 0x00, 0x00, 0x00, 0x00, 0x00, 0x04, 0x00, 0x0c, 0x00, 0x00, 0x00,
  0x16, 0x00, 0x00, 0x00, 0x00, 0x00, 0x00, 0x16
};

const int g_model_len = 6848;