unsigned char g_model[] = {
  0x1c, 0x00, 0x00, 0x00, 0x54, 0x46, 0x4c, 0x33, 0x14, 0x00, 0x20, 0x00,
  0x1c, 0x00, 0x18, 0x00, 0x14, 0x00, 0x10, 0x00, 0x0c, 0x00, 0x00, 0x00,
  0x08, 0x00, 0x04, 0x00, 0x14, 0x00, 0x00, 0x00, 0x1c, 0x00, 0x00, 0x00,
  0x80, 0x00, 0x00, 0x00, 0xd8, 0x00, 0x00, 0x00, 0xa0, 0x2b, 0x00, 0x00,
  0xb0, 0x2b, 0x00, 0x00, 0x00, 0x38, 0x00, 0x00, 0x03, 0x00, 0x00, 0x00,
  0x01, 0x00, 0x00, 0x00, 0x04, 0x00, 0x00, 0x00, 0x52, 0xd3, 0xff, 0xff,
  0x0c, 0x00, 0x00, 0x00, 0x1c, 0x00, 0x00, 0x00, 0x38, 0x00, 0x00, 0x00,
  0x0f, 0x00, 0x00, 0x00, 0x73, 0x65, 0x72, 0x76, 0x69, 0x6e, 0x67, 0x5f,
  0x64, 0x65, 0x66, 0x61, 0x75, 0x6c, 0x74, 0x00, 0x01, 0x00, 0x00, 0x00,
  0x04, 0x00, 0x00, 0x00, 0x9c, 0xff, 0xff, 0xff, 0x11, 0x00, 0x00, 0x00,
  0x04, 0x00, 0x00, 0x00, 0x07, 0x00, 0x00, 0x00, 0x64, 0x65, 0x6e, 0x73,
  0x65, 0x5f, 0x31, 0x00, 0x01, 0x00, 0x00, 0x00, 0x04, 0x00, 0x00, 0x00,
  0x36, 0xd4, 0xff, 0xff, 0x04, 0x00, 0x00, 0x00, 0x07, 0x00, 0x00, 0x00,
  0x69, 0x6e, 0x70, 0x75, 0x74, 0x5f, 0x31, 0x00, 0x02, 0x00, 0x00, 0x00,
  0x34, 0x00, 0x00, 0x00, 0x04, 0x00, 0x00, 0x00, 0xdc, 0xff, 0xff, 0xff,
  0x14, 0x00, 0x00, 0x00, 0x04, 0x00, 0x00, 0x00, 0x13, 0x00, 0x00, 0x00,
  0x43, 0x4f, 0x4e, 0x56, 0x45, 0x52, 0x53, 0x49, 0x4f, 0x4e, 0x5f, 0x4d,
  0x45, 0x54, 0x41, 0x44, 0x41, 0x54, 0x41, 0x00, 0x08, 0x00, 0x0c, 0x00,
  0x08, 0x00, 0x04, 0x00, 0x08, 0x00, 0x00, 0x00, 0x13, 0x00, 0x00, 0x00,
  0x04, 0x00, 0x00, 0x00, 0x13, 0x00, 0x00, 0x00, 0x6d, 0x69, 0x6e, 0x5f,
  0x72, 0x75, 0x6e, 0x74, 0x69, 0x6d, 0x65, 0x5f, 0x76, 0x65, 0x72, 0x73,
  0x69, 0x6f, 0x6e, 0x00, 0x15, 0x00, 0x00, 0x00, 0xc4, 0x2a, 0x00, 0x00,
  0xbc, 0x2a, 0x00, 0x00, 0xac, 0x27, 0x00, 0x00, 0x1c, 0x27, 0x00, 0x00,
  0xf4, 0x26, 0x00, 0x00, 0xdc, 0x26, 0x00, 0x00, 0x8c, 0x26, 0x00, 0x00,
  0x3c, 0x24, 0x00, 0x00, 0xec, 0x23, 0x00, 0x00, 0xdc, 0x1a, 0x00, 0x00,
  0xcc, 0x00, 0x00, 0x00, 0xc4, 0x00, 0x00, 0x00, 0xbc, 0x00, 0x00, 0x00,
  0xb4, 0x00, 0x00, 0x00, 0xac, 0x00, 0x00, 0x00, 0xa4, 0x00, 0x00, 0x00,
  0x9c, 0x00, 0x00, 0x00, 0x94, 0x00, 0x00, 0x00, 0x8c, 0x00, 0x00, 0x00,
  0x6c, 0x00, 0x00, 0x00, 0x04, 0x00, 0x00, 0x00, 0xfe, 0xd4, 0xff, 0xff,
  0x04, 0x00, 0x00, 0x00, 0x58, 0x00, 0x00, 0x00, 0x0c, 0x00, 0x00, 0x00,
  0x08, 0x00, 0x0e, 0x00, 0x08, 0x00, 0x04, 0x00, 0x08, 0x00, 0x00, 0x00,
  0x10, 0x00, 0x00, 0x00, 0x28, 0x00, 0x00, 0x00, 0x00, 0x00, 0x06, 0x00,
  0x08, 0x00, 0x04, 0x00, 0x06, 0x00, 0x00, 0x00, 0x04, 0x00, 0x00, 0x00,
  0x01, 0x00, 0x00, 0x00, 0xea, 0x03, 0x00, 0x00, 0x00, 0x00, 0x0a, 0x00,
  0x10, 0x00, 0x0c, 0x00, 0x08, 0x00, 0x04, 0x00, 0x0a, 0x00, 0x00, 0x00,
  0x01, 0x00, 0x00, 0x00, 0x02, 0x00, 0x00, 0x00, 0x04, 0x00, 0x00, 0x00,
  0x06, 0x00, 0x00, 0x00, 0x32, 0x2e, 0x31, 0x35, 0x2e, 0x30, 0x00, 0x00,
  0x62, 0xd5, 0xff, 0xff, 0x04, 0x00, 0x00, 0x00, 0x10, 0x00, 0x00, 0x00,
  0x32, 0x2e, 0x34, 0x2e, 0x30, 0x00, 0x00, 0x00, 0x00, 0x00, 0x00, 0x00,
  0x00, 0x00, 0x00, 0x00, 0xe0, 0xc9, 0xff, 0xff, 0xe4, 0xc9, 0xff, 0xff,
  0xe8, 0xc9, 0xff, 0xff, 0xec, 0xc9, 0xff, 0xff, 0xf0, 0xc9, 0xff, 0xff,
  0xf4, 0xc9, 0xff, 0xff, 0xf8, 0xc9, 0xff, 0xff, 0xfc, 0xc9, 0xff, 0xff,
  0x9e, 0xd5, 0xff, 0xff, 0x04, 0x00, 0x00, 0x00, 0x00, 0x1a, 0x00, 0x00,
  0x05, 0xfb, 0x03, 0xe4, 0x16, 0xfa, 0x06, 0xfc, 0x2e, 0x1d, 0xfa, 0x0c,
  0x01, 0x01, 0xeb, 0x14, 0x05, 0x02, 0xf9, 0x18, 0x13, 0xfd, 0xfc, 0xf0,
  0x05, 0x36, 0x07, 0x0f, 0xee, 0x0b, 0xdf, 0x21, 0xf8, 0x11, 0x00, 0x18,
  0x0b, 0x03, 0x04, 0xf3, 0x0e, 0x15, 0xff, 0x01, 0xf9, 0x1b, 0xdc, 0x16,
  0xfa, 0x12, 0x16, 0x02, 0x06, 0xf8, 0xfd, 0xed, 0xf9, 0x02, 0xf5, 0x08,
  0xfb, 0x27, 0xd2, 0x13, 0x0c, 0x0e, 0x28, 0x12, 0xfb, 0x01, 0x04, 0xea,
  0xff, 0xe2, 0xf9, 0x11, 0xf4, 0x04, 0xe2, 0x04, 0x06, 0x1c, 0x1b, 0x1b,
  0xef, 0x01, 0x08, 0xea, 0x0f, 0xe3, 0x12, 0xff, 0x10, 0x09, 0xc9, 0xfc,
  0x09, 0x17, 0xf5, 0x15, 0x00, 0xf7, 0xfe, 0xe5, 0x12, 0xc5, 0x05, 0x00,
  0x02, 0x05, 0xd0, 0xf2, 0xfc, 0x1b, 0xfe, 0x0f, 0xf6, 0xf7, 0xf8, 0xd7,
  0xf4, 0xd8, 0x0d, 0x01, 0xf8, 0xf3, 0xe9, 0xe0, 0xfd, 0x19, 0x10, 0x04,
  0x0a, 0x01, 0x0b, 0xf1, 0xf4, 0xde, 0x09, 0xe7, 0x00, 0xfb, 0xee, 0xed,
  0x08, 0x12, 0x0d, 0xf0, 0x10, 0x04, 0xfb, 0xf7, 0xdf, 0xd9, 0xf9, 0xcc,
  0xeb, 0xff, 0xf5, 0xf4, 0x01, 0x00, 0xec, 0xfc, 0xe3, 0xf8, 0xfa, 0x10,
  0xe8, 0xfc, 0x03, 0xde, 0xe9, 0xf0, 0xd3, 0xf2, 0x07, 0xf8, 0x05, 0xde,
  0xf0, 0x08, 0xfd, 0xf9, 0xf2, 0xec, 0xf8, 0xcc, 0xeb, 0xed, 0xde, 0x06,
  0x0b, 0xeb, 0x03, 0xd4, 0xf9, 0x00, 0x06, 0xe5, 0x05, 0xe6, 0x01, 0xce,
  0xeb, 0xdf, 0xd2, 0xfa, 0x07, 0x49, 0x0f, 0xfb, 0x23, 0xf9, 0x08, 0xf6,
  0x0a, 0x0e, 0x05, 0xfb, 0x02, 0xf0, 0x0e, 0xfa, 0xfd, 0x2f, 0xfd, 0x24,
  0xfb, 0xfb, 0xf9, 0xe0, 0x2e, 0xf6, 0x2a, 0xf9, 0x04, 0xe4, 0x00, 0xdf,
  0xfe, 0x11, 0xef, 0x15, 0x11, 0xf6, 0xff, 0xd6, 0x33, 0xf4, 0x02, 0xf9,
  0xf5, 0xea, 0x00, 0xd7, 0xf9, 0xf7, 0xee, 0x08, 0xca, 0x0a, 0xff, 0x00,
  0xc8, 0xfb, 0x08, 0x1d, 0x18, 0xdf, 0xec, 0xdc, 0x07, 0xf1, 0x03, 0xf7,
  0x12, 0x06, 0xff, 0xf6, 0x0c, 0xf1, 0x02, 0xd8, 0x1c, 0xd8, 0xf1, 0xe7,
  0xfc, 0xec, 0x08, 0xf4, 0x03, 0x08, 0x05, 0x08, 0xe0, 0xed, 0x0d, 0x15,
  0x03, 0xd7, 0x02, 0xd9, 0xfb, 0xed, 0xf5, 0x1a, 0xf1, 0x07, 0xfb, 0xf8,
  0x05, 0xe0, 0x17, 0xf0, 0x04, 0xe6, 0x0c, 0xfe, 0xfd, 0xe9, 0xfd, 0xff,
  0x00, 0xfb, 0xfa, 0xe6, 0xfb, 0xd0, 0x08, 0xc9, 0xf7, 0xf9, 0x05, 0xca,
  0xfa, 0xe9, 0x00, 0x1a, 0xf6, 0x04, 0xf9, 0xfe, 0xd1, 0xdd, 0x15, 0x00,
  0xe8, 0xe6, 0xea, 0xd8, 0x06, 0xf7, 0x0a, 0xfe, 0x09, 0x09, 0x0a, 0xf5,
  0xeb, 0xd9, 0xe8, 0xf4, 0xfa, 0x03, 0xef, 0x06, 0x01, 0xf2, 0xe9, 0x0b,
  0x17, 0x06, 0xfe, 0xe7, 0x0a, 0xe5, 0xdd, 0xf5, 0x12, 0x31, 0xf8, 0xfb,
  0x0a, 0xfe, 0x0a, 0x13, 0x1e, 0x00, 0x06, 0xb5, 0x04, 0xf9, 0xd7, 0xf3,
  0x12, 0x0f, 0xd5, 0x14, 0x03, 0x15, 0x03, 0x24, 0x1e, 0x04, 0x02, 0xef,
  0xe1, 0x16, 0xe7, 0xf4, 0x4d, 0x35, 0xf2, 0x12, 0xf6, 0xfc, 0x10, 0x00,
  0xfb, 0x08, 0xfb, 0xfd, 0xdb, 0xea, 0xea, 0xf9, 0xdb, 0xfc, 0x0c, 0x04,
  0x0c, 0x12, 0x11, 0xfb, 0xf6, 0x03, 0x00, 0xe1, 0xfd, 0xe8, 0x0c, 0xed,
  0xdc, 0x09, 0x01, 0x01, 0xfe, 0x12, 0x1a, 0xf3, 0xfa, 0x0a, 0x05, 0xe2,
  0xfc, 0x01, 0xfd, 0x18, 0xfe, 0xfc, 0x05, 0xff, 0x00, 0x08, 0x1e, 0x04,
  0xfe, 0x00, 0xfd, 0x07, 0xf3, 0xe7, 0xfb, 0x09, 0xef, 0x23, 0x27, 0x1a,
  0x04, 0x09, 0xe8, 0xff, 0xeb, 0x0b, 0x0b, 0xd7, 0xd7, 0xef, 0x0f, 0x11,
  0xd0, 0x0c, 0x09, 0x0b, 0x04, 0x16, 0x1f, 0x0e, 0xef, 0x06, 0xf9, 0xe5,
  0xe9, 0x04, 0x01, 0x03, 0xde, 0x17, 0x24, 0xf6, 0xfd, 0x07, 0xf3, 0x10,
  0xed, 0x09, 0xfe, 0xeb, 0xda, 0xfb, 0xfd, 0x07, 0xb7, 0x11, 0x18, 0x07,
  0xfb, 0x04, 0x00, 0x07, 0x05, 0x01, 0xfd, 0xe3, 0xe0, 0xe5, 0xf9, 0x01,
  0xc8, 0x15, 0xff, 0x02, 0x05, 0x07, 0x30, 0x0d, 0xfc, 0xf9, 0x02, 0xe0,
  0xf7, 0xe2, 0x01, 0x00, 0x9f, 0x0a, 0xf3, 0x10, 0xf7, 0x09, 0xea, 0x0e,
  0x07, 0x01, 0xfc, 0xea, 0xf2, 0xe3, 0x05, 0x05, 0xc9, 0x08, 0xec, 0x11,
  0x01, 0x01, 0x09, 0x1c, 0xed, 0x04, 0xff, 0xd9, 0x03, 0xe4, 0x05, 0xf6,
  0xd8, 0xfd, 0x1a, 0x08, 0x0f, 0xf1, 0xe0, 0x1e, 0xe9, 0x08, 0xfb, 0x0f,
  0x10, 0xf2, 0x09, 0xd6, 0xf7, 0x05, 0x10, 0x09, 0xf1, 0x1d, 0x27, 0x0e,
  0xf8, 0xf9, 0xf8, 0xfc, 0x05, 0xdb, 0xea, 0xed, 0xf5, 0xd2, 0x25, 0xf8,
  0xfe, 0x01, 0x10, 0xf7, 0xf5, 0x00, 0x08, 0xf6, 0x04, 0xef, 0xe3, 0xfc,
  0xe9, 0xf1, 0xf7, 0xe5, 0x08, 0xf8, 0x1b, 0xde, 0xec, 0xfe, 0x06, 0xf1,
  0xfb, 0xf1, 0xd9, 0x0d, 0x03, 0xec, 0xf2, 0x07, 0xf7, 0xef, 0x12, 0xf3,
  0xed, 0x02, 0x07, 0xfd, 0x01, 0x01, 0xf3, 0x10, 0x02, 0xea, 0xeb, 0x07,
  0xfa, 0xed, 0x00, 0xec, 0x07, 0xfa, 0xfb, 0x03, 0x11, 0x1c, 0xf8, 0x05,
  0x04, 0xf8, 0x0c, 0xf7, 0x06, 0xee, 0x0b, 0xe8, 0xea, 0xf9, 0xfb, 0xf3,
  0xf1, 0x13, 0xf3, 0x11, 0xf9, 0xea, 0x02, 0x03, 0x04, 0xe5, 0x1a, 0xe7,
  0xda, 0xfc, 0x01, 0xfc, 0xf1, 0xfa, 0xe1, 0x08, 0xfd, 0xe7, 0xea, 0xe1,
  0xff, 0xe6, 0x0e, 0xea, 0xef, 0xf6, 0x0a, 0x02, 0x0b, 0x03, 0x12, 0x08,
  0x06, 0xfa, 0xed, 0x18, 0x03, 0xe7, 0x27, 0xe2, 0xf1, 0x02, 0xf8, 0x08,
  0xf3, 0xf6, 0xed, 0x06, 0xf8, 0x00, 0xfb, 0x0e, 0xfb, 0xdf, 0x38, 0xe4,
  0xff, 0xfb, 0xf6, 0xf1, 0x04, 0xfe, 0xd0, 0x0d, 0xee, 0xea, 0xde, 0xee,
  0xf7, 0xf9, 0x1d, 0xf5, 0xf3, 0x01, 0xf9, 0xf2, 0xf5, 0xfd, 0xdb, 0x07,
  0x05, 0xe5, 0xd7, 0xef, 0x08, 0xdf, 0x1b, 0xf6, 0xec, 0x08, 0x09, 0xff,
  0xf5, 0x0a, 0xdb, 0xf7, 0x07, 0xed, 0xd8, 0xbf, 0xfa, 0x0b, 0x26, 0xfb,
  0x03, 0xff, 0xfd, 0x0d, 0xe8, 0xee, 0xd6, 0xea, 0xe5, 0xf5, 0xd9, 0x0f,
  0x08, 0x12, 0x47, 0xff, 0x30, 0x04, 0xfd, 0x12, 0x0a, 0xeb, 0xe0, 0x11,
  0x03, 0xf6, 0xf3, 0x05, 0x04, 0x09, 0xf8, 0x33, 0x81, 0x06, 0x0a, 0xf3,
  0xce, 0x08, 0x13, 0xf6, 0x04, 0x1c, 0x02, 0xf8, 0x03, 0xe3, 0x00, 0xe6,
  0xbf, 0x02, 0x01, 0xf0, 0xcd, 0x0b, 0x19, 0x1b, 0xee, 0xee, 0x1e, 0xe0,
  0xfd, 0x02, 0xff, 0xfc, 0xac, 0xfe, 0xfc, 0xef, 0xf9, 0xf6, 0x0b, 0x05,
  0xfb, 0xf5, 0x09, 0xf8, 0x05, 0xe2, 0x01, 0xeb, 0xda, 0xfe, 0xfe, 0xd0,
  0xf6, 0x0e, 0x1b, 0xf7, 0xd2, 0x02, 0xfb, 0xef, 0xf8, 0xc6, 0xf8, 0xfe,
  0xda, 0x04, 0xfd, 0xc6, 0xe8, 0x0b, 0xf2, 0x0b, 0xe3, 0x00, 0x1a, 0xce,
  0xf5, 0xff, 0xff, 0xfb, 0xa8, 0xf8, 0xfa, 0xfc, 0x20, 0xfa, 0xec, 0x01,
  0xd1, 0x02, 0x0e, 0xb4, 0xf9, 0xf9, 0x11, 0xf7, 0xbf, 0x08, 0xfd, 0xd4,
  0x09, 0xf5, 0x02, 0x11, 0xec, 0xeb, 0x1e, 0xe6, 0x01, 0x08, 0xf6, 0xf0,
  0xd2, 0x00, 0x0b, 0xeb, 0xf6, 0x0a, 0xe7, 0x16, 0xea, 0x00, 0x03, 0xcb,
  0x0a, 0x0c, 0xe1, 0x15, 0x03, 0xfb, 0x0b, 0x08, 0xe4, 0x15, 0xd6, 0x0f,
  0xd6, 0x0b, 0x00, 0xc3, 0x09, 0xe6, 0xff, 0x17, 0x00, 0x06, 0x06, 0xf4,
  0x34, 0x24, 0xd7, 0x1d, 0xf9, 0xf4, 0x0b, 0xdd, 0xfa, 0xe4, 0x01, 0x00,
  0xed, 0x06, 0x00, 0x14, 0x1e, 0x19, 0xe4, 0xfd, 0x0a, 0xf5, 0x08, 0xe2,
  0x08, 0x00, 0xf4, 0x11, 0xf4, 0xfd, 0x02, 0xf3, 0x15, 0x16, 0xed, 0xee,
  0x1e, 0x0c, 0x0c, 0xca, 0xfe, 0xfe, 0x08, 0x05, 0x02, 0xfe, 0xf8, 0xef,
  0x09, 0x02, 0xed, 0x09, 0x19, 0x06, 0x00, 0xbf, 0x00, 0x10, 0x08, 0xfc,
  0xfe, 0xfe, 0x02, 0xff, 0x00, 0xf6, 0x00, 0x24, 0xec, 0xf9, 0xe7, 0x2d,
  0x04, 0x02, 0xf0, 0x01, 0xfc, 0x0c, 0xfc, 0xf9, 0xe7, 0xea, 0x09, 0x11,
  0x07, 0xfc, 0xe0, 0x35, 0xf7, 0x03, 0x13, 0x06, 0x0f, 0x01, 0xf8, 0x05,
  0xf0, 0xf5, 0x04, 0x1d, 0x04, 0xfc, 0xe3, 0x2d, 0x0d, 0xfc, 0x1a, 0x16,
  0xeb, 0xf8, 0x04, 0xfb, 0xea, 0xea, 0x08, 0x1a, 0x06, 0xfa, 0xdb, 0x31,
  0xfe, 0xf9, 0xcd, 0x12, 0xf6, 0xfe, 0xf4, 0x0d, 0xdd, 0xf4, 0x18, 0x18,
  0x15, 0xfc, 0xe0, 0x35, 0x09, 0x00, 0x15, 0x1e, 0x09, 0xf5, 0x04, 0xf7,
  0xde, 0xfa, 0x05, 0xf7, 0x13, 0xf5, 0xd6, 0x29, 0xfd, 0xf8, 0xfd, 0x0c,
  0xf9, 0x07, 0xf5, 0xe2, 0xf3, 0x03, 0x0b, 0x12, 0xea, 0xfd, 0xbf, 0x1a,
  0x07, 0xf3, 0xf5, 0x19, 0xe8, 0xfd, 0xfd, 0xee, 0xf5, 0x0a, 0x03, 0xe0,
  0xeb, 0xf2, 0xfe, 0xef, 0x07, 0xe8, 0x22, 0x0c, 0xfb, 0xfd, 0xf6, 0xff,
  0xf2, 0x05, 0x16, 0xeb, 0xdf, 0xfa, 0x03, 0x24, 0x01, 0xe8, 0x15, 0x10,
  0x1d, 0x04, 0xf4, 0xee, 0xca, 0x17, 0x04, 0xf8, 0xe8, 0x17, 0xef, 0x3c,
  0xff, 0xf3, 0xfa, 0xfd, 0x18, 0xf8, 0xf5, 0x0a, 0xec, 0x03, 0xff, 0x05,
  0xf8, 0xfc, 0xf7, 0x3c, 0x06, 0xf5, 0xf7, 0xf4, 0xff, 0xfa, 0xf7, 0x01,
  0xe2, 0xf2, 0x04, 0x13, 0xf3, 0x00, 0x00, 0x3e, 0xf4, 0xeb, 0x12, 0xf4,
  0x23, 0xf5, 0xf4, 0x1d, 0xfc, 0x05, 0x04, 0x1a, 0x1f, 0x0f, 0xf9, 0x1e,
  0xfb, 0xfc, 0xfa, 0xee, 0xe9, 0xf8, 0xfd, 0x08, 0xfd, 0xf2, 0x08, 0xe8,
  0xe7, 0xd0, 0xfc, 0xff, 0x01, 0xf5, 0x0b, 0xf9, 0x04, 0x01, 0x02, 0xe7,
  0x08, 0xf2, 0x19, 0xfc, 0xf4, 0xff, 0xec, 0xf9, 0x05, 0xf0, 0xe1, 0x01,
  0x10, 0x06, 0xfd, 0xef, 0xf2, 0xfe, 0x11, 0xf6, 0xfc, 0xf9, 0xf8, 0xd3,
  0x0b, 0xf7, 0xfb, 0xf4, 0x0a, 0xfb, 0x08, 0xf9, 0xf7, 0x16, 0x01, 0xf7,
  0x01, 0x02, 0x01, 0x01, 0xfc, 0x04, 0x0b, 0xfe, 0x16, 0xfe, 0xf9, 0xe1,
  0x14, 0x07, 0xfc, 0xcc, 0xfe, 0x13, 0xff, 0xf7, 0xfe, 0xf7, 0x04, 0xf8,
  0x1d, 0x02, 0x03, 0xde, 0xfb, 0xf3, 0xf9, 0xe6, 0x0a, 0x16, 0xfb, 0xea,
  0xf4, 0x01, 0xf5, 0xfb, 0x23, 0x06, 0x05, 0xf9, 0x04, 0xf1, 0x00, 0xf5,
  0x0f, 0x0c, 0x04, 0xfe, 0x08, 0xf1, 0x06, 0x03, 0x1d, 0x06, 0x08, 0xfd,
  0x04, 0xfb, 0x03, 0xfb, 0x05, 0x00, 0x0e, 0xf0, 0x0b, 0xf4, 0xf5, 0x01,
  0x32, 0x07, 0x0f, 0x08, 0x08, 0xf0, 0xed, 0xff, 0x14, 0x0c, 0xdf, 0x04,
  0x01, 0xed, 0x02, 0x05, 0x25, 0x0b, 0x00, 0xfb, 0x0c, 0x09, 0xe8, 0x01,
  0x0c, 0x0b, 0x01, 0x16, 0xf5, 0x09, 0xde, 0x06, 0x26, 0x04, 0xfb, 0xfb,
  0x1f, 0x0f, 0xd9, 0x0f, 0x2f, 0x0b, 0xe8, 0xf4, 0xfe, 0x14, 0x0e, 0xfa,
  0x2c, 0xff, 0xf3, 0xde, 0x20, 0x14, 0xe9, 0x16, 0x29, 0xfd, 0x0c, 0x10,
  0xfd, 0x0a, 0xdb, 0xe7, 0x0f, 0xfb, 0xf5, 0xf7, 0x24, 0x3b, 0xed, 0x1c,
  0x36, 0x1c, 0x02, 0x1a, 0xfc, 0xfb, 0x0c, 0xc7, 0xf8, 0xfe, 0x09, 0xf9,
  0x02, 0x08, 0xec, 0xa4, 0xed, 0xc9, 0xea, 0xe5, 0xf9, 0xfa, 0xfe, 0xe3,
  0xd4, 0xf6, 0x02, 0x16, 0xe7, 0x01, 0xd6, 0x1c, 0xe0, 0xe7, 0xf2, 0x14,
  0xf6, 0x06, 0x13, 0xce, 0xdc, 0xfc, 0xf9, 0x02, 0xe5, 0xf6, 0xfd, 0xfb,
  0x21, 0xf9, 0xf6, 0xeb, 0xff, 0xcf, 0x0e, 0xd8, 0xfe, 0xf7, 0x06, 0x0d,
  0xef, 0xe7, 0xef, 0x08, 0xe9, 0x07, 0x12, 0xf9, 0xf7, 0xad, 0xde, 0xeb,
  0xfd, 0xfc, 0x04, 0x17, 0xe3, 0xfb, 0xf2, 0x1a, 0xff, 0x20, 0x08, 0x2c,
  0xff, 0xdd, 0xe2, 0xd9, 0xf5, 0x03, 0x00, 0xf5, 0xda, 0xfb, 0x0d, 0x25,
  0x09, 0x17, 0x08, 0x22, 0x0a, 0xfa, 0x00, 0x07, 0xea, 0x00, 0x0b, 0x0d,
  0xe4, 0x16, 0x11, 0x22, 0xf2, 0x1a, 0xe6, 0x15, 0x01, 0x0a, 0xeb, 0x19,
  0xea, 0xf6, 0x09, 0x0b, 0xf9, 0xe8, 0x0c, 0x1d, 0x00, 0xff, 0xdd, 0x0e,
  0x03, 0x1b, 0x02, 0x2d, 0xf2, 0x04, 0xf8, 0xd4, 0xe9, 0xd3, 0xdf, 0xed,
  0xed, 0x02, 0xb0, 0xb6, 0xfb, 0x12, 0x03, 0x1b, 0x14, 0xf9, 0x00, 0xf1,
  0xcf, 0xf5, 0xf8, 0xcc, 0xd0, 0x11, 0xae, 0xe1, 0xf8, 0x01, 0xd4, 0x1e,
  0xf5, 0x05, 0x07, 0xfc, 0x12, 0xe9, 0x0e, 0xeb, 0xad, 0x0b, 0xde, 0xd4,
  0xfa, 0xe5, 0x01, 0x08, 0x18, 0xff, 0xff, 0xf1, 0x1a, 0x0b, 0x05, 0x9d,
  0x0c, 0x2d, 0xf7, 0x07, 0xfa, 0x12, 0xf1, 0xc6, 0xef, 0x08, 0x04, 0x1f,
  0x01, 0x22, 0xe5, 0xe4, 0x0f, 0xef, 0xfa, 0xcf, 0xfc, 0xe2, 0xff, 0xdf,
  0xf1, 0xfc, 0x00, 0xea, 0xfd, 0xfa, 0xee, 0xd7, 0x06, 0xe4, 0xe6, 0xf4,
  0x00, 0xea, 0x06, 0xe8, 0xe9, 0x07, 0x01, 0xe8, 0xf3, 0xfc, 0xf4, 0xd2,
  0x02, 0xe9, 0xec, 0xe7, 0xf7, 0xea, 0xfe, 0xcc, 0x02, 0x02, 0xfe, 0xe7,
  0xf1, 0xf9, 0xf4, 0xc9, 0x24, 0xef, 0xf7, 0x04, 0xfc, 0xed, 0xf4, 0xd8,
  0x09, 0xf6, 0xfc, 0xf7, 0xf5, 0xfa, 0x09, 0xe8, 0x0b, 0xf3, 0xf4, 0x06,
  0xfe, 0xfd, 0x01, 0xe8, 0x00, 0x04, 0x06, 0xef, 0xf9, 0xfd, 0xed, 0xe0,
  0xfa, 0x00, 0xd5, 0x15, 0x05, 0xde, 0xfc, 0xe2, 0xfb, 0x08, 0x01, 0x06,
  0x01, 0xfe, 0xdf, 0xf3, 0x0e, 0xeb, 0xd7, 0x08, 0x03, 0xf8, 0xf4, 0xe5,
  0xf9, 0x02, 0xff, 0x1e, 0xeb, 0x0e, 0xde, 0xfb, 0x1c, 0xf3, 0xe3, 0xf8,
  0x04, 0xee, 0xfa, 0xe3, 0xf8, 0xf6, 0xff, 0xff, 0xf2, 0x16, 0x00, 0x29,
  0x12, 0xee, 0xf1, 0x17, 0x07, 0xec, 0xfa, 0xd9, 0xfe, 0xfb, 0xfb, 0xfd,
  0xec, 0x0d, 0x00, 0x11, 0xfa, 0xdd, 0xf0, 0x19, 0xf5, 0xe8, 0xf3, 0xe9,
  0xfd, 0x02, 0x05, 0xeb, 0x23, 0x14, 0xe0, 0x04, 0x0f, 0xe0, 0xff, 0x10,
  0xf6, 0xee, 0x0d, 0xdf, 0xe0, 0xf4, 0xf4, 0x06, 0xe4, 0x1d, 0xee, 0xf8,
  0x1e, 0xef, 0xfa, 0xf3, 0xf9, 0xe9, 0x0a, 0xd8, 0xe8, 0xff, 0xfa, 0xe4,
  0xde, 0x02, 0xe9, 0xe8, 0x1a, 0xf3, 0xf0, 0xe8, 0xf7, 0xdb, 0x1e, 0xfe,
  0xee, 0xf5, 0x00, 0xf8, 0xf6, 0xfd, 0xeb, 0xef, 0xec, 0xf1, 0xf1, 0xf1,
  0x04, 0xfa, 0x16, 0xfa, 0xee, 0x06, 0xf8, 0x0c, 0x15, 0xf7, 0xfc, 0x0b,
  0x08, 0x11, 0x11, 0xef, 0xf6, 0x01, 0xfa, 0xf8, 0xeb, 0xff, 0x06, 0x1a,
  0x05, 0x0e, 0xf7, 0x06, 0x04, 0xfd, 0x1e, 0xe8, 0xf8, 0x0c, 0xfc, 0x00,
  0xf1, 0xfa, 0x06, 0x22, 0x08, 0x03, 0x17, 0xf6, 0x08, 0xf3, 0x36, 0x00,
  0x09, 0x16, 0x1c, 0xfc, 0xfa, 0xfe, 0x00, 0x26, 0x10, 0x19, 0x07, 0x05,
  0x19, 0xfb, 0x25, 0xf0, 0x04, 0x01, 0x07, 0xff, 0xf5, 0x06, 0xf5, 0x18,
  0x11, 0x08, 0x05, 0x09, 0x0e, 0x07, 0x14, 0x14, 0xf9, 0x0f, 0xf7, 0xfe,
  0xf1, 0xf9, 0x06, 0x1b, 0x1f, 0x03, 0x09, 0x00, 0x02, 0xfc, 0x26, 0xff,
  0xfb, 0xf8, 0x03, 0x03, 0xfd, 0xf7, 0xfa, 0x1c, 0x19, 0x0b, 0x09, 0x05,
  0x0f, 0x01, 0x35, 0xf3, 0xfc, 0x0a, 0x1a, 0x1b, 0xfd, 0x06, 0x01, 0x33,
  0x0c, 0xfa, 0x17, 0x13, 0x05, 0xfb, 0x0e, 0xfe, 0x0a, 0x16, 0x1c, 0x05,
  0xed, 0x03, 0x01, 0x17, 0x17, 0x0f, 0x1f, 0x0e, 0x04, 0xeb, 0x2e, 0xfc,
  0xff, 0x01, 0xfb, 0x02, 0xe2, 0x01, 0x07, 0x41, 0x03, 0xe6, 0x17, 0x0d,
  0x10, 0xfa, 0x1f, 0x04, 0xfc, 0xfe, 0x00, 0x0d, 0xcd, 0xff, 0xfb, 0x23,
  0x06, 0xd3, 0x13, 0x16, 0x04, 0xfc, 0x0f, 0xe8, 0x0c, 0xff, 0xf1, 0x07,
  0xe7, 0xfb, 0x00, 0x22, 0xf2, 0xfe, 0xfb, 0xdd, 0x0f, 0xf8, 0x0d, 0xec,
  0x09, 0x15, 0x00, 0x11, 0xda, 0xfb, 0xfc, 0x20, 0xed, 0xed, 0xff, 0xe1,
  0x21, 0xf0, 0x1b, 0xe6, 0x06, 0x18, 0x12, 0xeb, 0x1a, 0xfa, 0x02, 0x21,
  0x22, 0x0d, 0xf4, 0x06, 0xf5, 0xf4, 0x10, 0xef, 0xf7, 0x00, 0x18, 0xf0,
  0x1e, 0x04, 0xfc, 0x0a, 0x33, 0x2e, 0xdb, 0x12, 0x14, 0xfb, 0xf2, 0xf2,
  0x09, 0xfb, 0xf9, 0x05, 0x0a, 0xf5, 0xfa, 0x05, 0x37, 0x20, 0xed, 0x0b,
  0x1a, 0xfb, 0x1d, 0xfc, 0x05, 0xe3, 0xfa, 0x01, 0x0c, 0x05, 0xf9, 0x13,
  0x3c, 0x29, 0xcc, 0x16, 0x16, 0x0c, 0x2c, 0xfe, 0xfe, 0xd4, 0x0f, 0x0b,
  0x00, 0x04, 0xfe, 0x1d, 0x2c, 0xfb, 0xd6, 0x11, 0x15, 0x04, 0x1f, 0xef,
  0x06, 0xd6, 0xe4, 0x05, 0xff, 0xf4, 0x02, 0x0f, 0xff, 0xe1, 0xff, 0xfa,
  0x19, 0x08, 0x05, 0xde, 0x07, 0xeb, 0xe3, 0x0e, 0xe7, 0xf9, 0x00, 0xe5,
  0x05, 0xd3, 0xeb, 0x16, 0x12, 0xf8, 0x1a, 0xdf, 0x05, 0xfd, 0xf4, 0x04,
  0xec, 0x00, 0xf7, 0xef, 0xf8, 0xeb, 0x01, 0xed, 0xfd, 0x12, 0xe4, 0xf3,
  0x03, 0x01, 0xdd, 0xec, 0xf7, 0xf9, 0x01, 0x08, 0xf4, 0x08, 0x09, 0xed,
  0xfd, 0x15, 0xfb, 0x05, 0x05, 0xe4, 0xf1, 0x04, 0xd4, 0x03, 0x0b, 0x10,
  0xe0, 0x2c, 0x08, 0xf6, 0x06, 0xf7, 0xf7, 0xd3, 0xfa, 0xe6, 0x07, 0xf6,
  0xdd, 0x05, 0xf7, 0xf5, 0xcd, 0x0f, 0x0e, 0x07, 0xd8, 0xfa, 0xc7, 0xc8,
  0xf7, 0xe1, 0xf6, 0xd9, 0x0e, 0xfa, 0xfb, 0xe3, 0xca, 0xd8, 0x0a, 0xda,
  0xd2, 0xe6, 0xeb, 0x08, 0xf7, 0xe6, 0xf2, 0xf4, 0x06, 0x01, 0xfd, 0xea,
  0xd9, 0xe1, 0x17, 0x0d, 0xe4, 0xea, 0xf1, 0xe1, 0x05, 0x26, 0xf1, 0x1e,
  0xd6, 0x04, 0x04, 0x30, 0xec, 0x19, 0xf2, 0x32, 0x10, 0xec, 0x2a, 0xe9,
  0x04, 0x1e, 0x03, 0x01, 0xf2, 0x02, 0x07, 0x2c, 0x1a, 0x0e, 0x00, 0x16,
  0xfe, 0x0d, 0x39, 0xd0, 0x00, 0x10, 0x0d, 0x01, 0x07, 0xfe, 0x05, 0x20,
  0x17, 0xe9, 0xf3, 0xfc, 0x04, 0x10, 0x25, 0xd2, 0x03, 0x0f, 0xff, 0xd0,
  0x12, 0x05, 0x08, 0xde, 0x06, 0xdc, 0x0e, 0xf3, 0xdf, 0x0e, 0xd5, 0xf9,
  0x00, 0xf2, 0x02, 0xde, 0xe7, 0x08, 0x08, 0x15, 0xdc, 0xdb, 0x10, 0xf0,
  0x07, 0xf1, 0xb8, 0xce, 0xff, 0xd2, 0xdb, 0xec, 0x0f, 0x00, 0xfd, 0xe4,
  0xf2, 0xec, 0xfe, 0xe5, 0x01, 0x1b, 0xcd, 0xe8, 0xfa, 0xed, 0x1b, 0xec,
  0xf0, 0xfb, 0x00, 0xbd, 0xf4, 0xea, 0xf0, 0xc2, 0x00, 0xfb, 0xd9, 0xe7,
  0x0b, 0xf7, 0xc5, 0xec, 0xd7, 0x09, 0x03, 0x10, 0xef, 0xff, 0x08, 0xf9,
  0x0c, 0xf3, 0xe3, 0xf5, 0xff, 0xde, 0xe6, 0x16, 0xde, 0xfc, 0x04, 0x22,
  0x0c, 0x1d, 0xef, 0x0a, 0x18, 0x00, 0x16, 0xea, 0xf4, 0xfa, 0x0a, 0xfc,
  0xf5, 0x02, 0xfe, 0x11, 0x1d, 0x1c, 0xf6, 0xeb, 0x18, 0xf2, 0x26, 0xb0,
  0xf9, 0x1b, 0x0d, 0x1b, 0xf8, 0xf7, 0x03, 0x14, 0x2a, 0xf3, 0xe4, 0x07,
  0x20, 0xef, 0x48, 0xf9, 0x0b, 0x0a, 0xfb, 0xfe, 0xf9, 0xfd, 0xf9, 0x1d,
  0x0b, 0xf4, 0x19, 0xed, 0xf4, 0x11, 0x10, 0xce, 0xff, 0x0c, 0x0e, 0xe8,
  0x0b, 0x06, 0xfd, 0x1e, 0x00, 0xe6, 0x0b, 0x07, 0xf8, 0xf2, 0x45, 0xc8,
  0x06, 0xfe, 0xf9, 0x11, 0xc8, 0xf6, 0x08, 0x11, 0xfb, 0x01, 0xf4, 0x08,
  0xeb, 0x08, 0x08, 0x08, 0xfd, 0xe0, 0xfc, 0xf7, 0xe4, 0xf6, 0x04, 0x0c,
  0xe8, 0xef, 0xe6, 0x1d, 0xc7, 0xe6, 0x1e, 0x01, 0xf7, 0xfe, 0xfa, 0x0b,
  0xf2, 0xfc, 0xfe, 0xd3, 0x04, 0xf9, 0xd7, 0x18, 0xdd, 0xfc, 0x0c, 0xed,
  0xfc, 0xe6, 0xf2, 0xe6, 0xe0, 0xfc, 0xfb, 0xca, 0xea, 0x00, 0xeb, 0x2d,
  0xcb, 0xf1, 0x14, 0xd6, 0xfb, 0x08, 0xe6, 0xf2, 0xc3, 0x07, 0x07, 0xca,
  0xda, 0x0e, 0xb9, 0x34, 0xea, 0x0d, 0x03, 0xed, 0x09, 0x07, 0x1b, 0xc3,
  0xd8, 0x00, 0x05, 0xa3, 0xe8, 0x1d, 0x11, 0x26, 0xe7, 0xe6, 0xf1, 0xe6,
  0x07, 0x1e, 0xf3, 0xdc, 0xdc, 0x07, 0xfc, 0xd8, 0xeb, 0x22, 0xd9, 0x27,
  0x03, 0x0a, 0xec, 0xf1, 0x07, 0x19, 0x0f, 0xc7, 0xd6, 0x07, 0xff, 0xa8,
  0x04, 0x07, 0xec, 0x14, 0x03, 0x04, 0xd3, 0xf7, 0xf7, 0xfb, 0xf6, 0xe5,
  0xd2, 0x07, 0xfb, 0xce, 0xe5, 0x13, 0xe5, 0x1e, 0xc9, 0xfb, 0xf2, 0xea,
  0x09, 0xf4, 0xed, 0xe4, 0xd3, 0x01, 0xfb, 0xd2, 0x1d, 0x00, 0xc9, 0x0e,
  0xf9, 0xd9, 0xd6, 0x02, 0x07, 0x13, 0x1f, 0xd7, 0xf3, 0x05, 0x01, 0xd7,
  0xfb, 0x11, 0xda, 0xf3, 0xee, 0xfc, 0xf7, 0xe0, 0xfe, 0x15, 0x0d, 0xe0,
  0x06, 0x0b, 0xfe, 0xd6, 0xf8, 0x05, 0x0d, 0xe6, 0xec, 0xf9, 0x0c, 0xef,
  0xf6, 0x01, 0x13, 0xfa, 0xf7, 0x04, 0x08, 0xc5, 0xfe, 0xf4, 0x02, 0xf7,
  0xe7, 0xf5, 0xe9, 0xcf, 0x12, 0x06, 0x07, 0x08, 0xed, 0x03, 0xfe, 0xfc,
  0xe4, 0xc7, 0x0c, 0xef, 0x02, 0x08, 0xd3, 0xdc, 0xf9, 0xe3, 0x08, 0x13,
  0x0b, 0xfe, 0x09, 0x12, 0x17, 0xfd, 0xfa, 0xea, 0xe8, 0x06, 0xd5, 0xf7,
  0x0c, 0xee, 0xfa, 0x07, 0xe6, 0x08, 0x0a, 0x0c, 0x23, 0x00, 0x08, 0xd5,
  0xf7, 0x0a, 0xe6, 0xde, 0x01, 0xf3, 0x02, 0xe5, 0x08, 0xf8, 0x07, 0x20,
  0xe1, 0xcc, 0xf1, 0xf0, 0x00, 0xee, 0x10, 0xfc, 0x01, 0xf4, 0xef, 0xf4,
  0xe6, 0x01, 0xfd, 0xfd, 0xcc, 0xa7, 0x0d, 0x04, 0xf3, 0xfa, 0x15, 0xfc,
  0xf5, 0x03, 0xe9, 0x10, 0x16, 0xf7, 0x01, 0x0c, 0xde, 0xe4, 0xf6, 0xfb,
  0x12, 0xf8, 0x02, 0x16, 0xf9, 0x0c, 0xe3, 0x01, 0x1b, 0x05, 0x07, 0xfe,
  0xd0, 0xcf, 0xeb, 0x17, 0x12, 0xfc, 0x0c, 0x24, 0xf6, 0x16, 0xd5, 0x06,
  0x19, 0x00, 0xf6, 0x03, 0xee, 0xf3, 0xd2, 0x18, 0x0c, 0x0c, 0x1f, 0x1d,
  0xfb, 0xfc, 0xed, 0x0d, 0x2a, 0xfb, 0x05, 0x1b, 0xf9, 0x09, 0xb9, 0x1b,
  0x0f, 0x1f, 0x1b, 0x26, 0xff, 0xe7, 0xee, 0xef, 0x13, 0x0a, 0xfe, 0xf4,
  0x0f, 0x0c, 0xd9, 0x13, 0x0f, 0xee, 0x06, 0x1f, 0x0b, 0xc3, 0xf9, 0xec,
  0xfc, 0x06, 0xfa, 0xf7, 0x09, 0x23, 0xc5, 0x0d, 0xfb, 0xdf, 0x1f, 0xfd,
  0xfd, 0xd2, 0xd8, 0xc0, 0x0a, 0x09, 0xf7, 0x07, 0xfe, 0x29, 0xbe, 0x13,
  0x0c, 0xd3, 0x15, 0xb2, 0xf5, 0xc1, 0xd7, 0x9f, 0xe9, 0xfa, 0xf6, 0xe7,
  0xfc, 0x2e, 0xf3, 0xf8, 0xda, 0xa5, 0x18, 0xb8, 0x03, 0xe5, 0x0a, 0xfb,
  0xd0, 0x01, 0x06, 0xf6, 0xae, 0xe4, 0xf0, 0xdd, 0xe2, 0x0b, 0xf6, 0xdb,
  0x04, 0x06, 0xeb, 0x06, 0xf2, 0x09, 0xfa, 0xd9, 0xd8, 0xf1, 0x00, 0xea,
  0xe1, 0x24, 0xe5, 0xb8, 0xf5, 0x01, 0xe9, 0x01, 0xd4, 0x00, 0x02, 0xe3,
  0xe8, 0xe6, 0xf0, 0xe8, 0xdc, 0x00, 0xd4, 0x93, 0xff, 0xfe, 0x0a, 0xf5,
  0xd6, 0x0b, 0xf7, 0x2a, 0xc5, 0xdb, 0xf4, 0xd0, 0xc5, 0xf1, 0x04, 0xb4,
  0x06, 0x0e, 0xfd, 0xee, 0xf5, 0xfd, 0x00, 0x09, 0xf7, 0x25, 0x01, 0x05,
  0xfa, 0xf3, 0xff, 0xa5, 0xfb, 0x27, 0x0a, 0xfa, 0xfc, 0xfd, 0xfd, 0x13,
  0x0c, 0x1d, 0x08, 0x01, 0x0a, 0xd5, 0x18, 0xde, 0x02, 0x02, 0xf4, 0x00,
  0xfa, 0x0c, 0xfb, 0x20, 0x19, 0x20, 0x0b, 0x05, 0x04, 0xf4, 0x23, 0xdc,
  0xff, 0x0e, 0xed, 0x0a, 0x05, 0x00, 0x06, 0x18, 0x23, 0x25, 0xdc, 0x0b,
  0x0f, 0xed, 0x0c, 0xce, 0xfe, 0x15, 0x0f, 0x00, 0x10, 0x02, 0x00, 0x08,
  0x13, 0x05, 0x07, 0x00, 0xff, 0x0b, 0x13, 0xc9, 0x08, 0x0b, 0xe6, 0x04,
  0x07, 0xf8, 0xfb, 0x0b, 0x02, 0xff, 0x04, 0x05, 0xfa, 0x00, 0x17, 0xe4,
  0x00, 0xff, 0xff, 0x01, 0xf5, 0xff, 0xfe, 0x1c, 0x19, 0x0b, 0xfe, 0x12,
  0xf4, 0xf4, 0x0c, 0xec, 0x01, 0xf7, 0x01, 0x01, 0x00, 0x08, 0xfd, 0x1a,
  0x21, 0x12, 0xfb, 0x23, 0x13, 0x04, 0x0a, 0xf7, 0xf7, 0x0b, 0xe1, 0x05,
  0xe9, 0x05, 0x06, 0x0c, 0x22, 0x03, 0x18, 0x1c, 0x14, 0x0e, 0x11, 0xe3,
  0x0a, 0xf7, 0x06, 0xff, 0xf1, 0xfe, 0xfb, 0xfe, 0xec, 0x20, 0xf6, 0x11,
  0x00, 0xfc, 0xdd, 0x1e, 0xf8, 0xf0, 0x06, 0xf4, 0xd9, 0xfb, 0x07, 0xe6,
  0x12, 0x12, 0xe7, 0x1b, 0xed, 0xdd, 0x03, 0xff, 0x08, 0xea, 0x13, 0xff,
  0xb7, 0x05, 0x01, 0xed, 0x01, 0x19, 0x27, 0x0a, 0xe9, 0xf8, 0x13, 0xcc,
  0x01, 0xf9, 0x02, 0xfe, 0xb6, 0xf7, 0x04, 0xf1, 0x17, 0x13, 0x0a, 0x2d,
  0xec, 0x07, 0x24, 0xf5, 0xfc, 0xe1, 0xfd, 0xf6, 0xc2, 0xff, 0x04, 0xb2,
  0x13, 0x25, 0xed, 0x19, 0xdf, 0x03, 0xe1, 0x08, 0xf6, 0xe0, 0x02, 0xf5,
  0xc9, 0xff, 0x0a, 0xd7, 0xdf, 0x12, 0xfa, 0x19, 0xe2, 0xf6, 0xee, 0xe6,
  0x03, 0xe7, 0x02, 0xfc, 0xdc, 0x09, 0x06, 0xdd, 0x02, 0x08, 0x02, 0x23,
  0xd5, 0xed, 0x27, 0xd6, 0x00, 0xce, 0x15, 0xcf, 0x00, 0xf9, 0x08, 0xdd,
  0x05, 0xf7, 0xe3, 0x1e, 0xe0, 0xfd, 0xfa, 0x0b, 0xfe, 0xd3, 0x16, 0xc8,
  0x18, 0xfe, 0xfa, 0xc4, 0x00, 0xfb, 0xf5, 0xfa, 0xc1, 0x16, 0xf7, 0x1b,
  0xfe, 0xe5, 0xfb, 0xab, 0x02, 0xf5, 0x07, 0xcf, 0xe9, 0xff, 0xe8, 0x1d,
  0xea, 0x0e, 0x1e, 0xff, 0x01, 0x00, 0x17, 0xe5, 0xde, 0x00, 0xfc, 0xbf,
  0xdf, 0xef, 0x04, 0x1d, 0xf2, 0x0b, 0x0f, 0x05, 0xfa, 0x0f, 0x0f, 0xfc,
  0xf2, 0x01, 0xfd, 0xfe, 0xf5, 0x06, 0xff, 0x17, 0xf2, 0x00, 0x28, 0xd9,
  0x02, 0x29, 0x1d, 0xfc, 0xd9, 0x04, 0xfb, 0xeb, 0x13, 0x0a, 0xf6, 0xf8,
  0xc7, 0xd6, 0x0c, 0xcc, 0x15, 0x32, 0x1b, 0x12, 0xbb, 0x05, 0xfd, 0xf5,
  0xef, 0xf0, 0x0c, 0xca, 0x12, 0xf3, 0xe8, 0xbf, 0x09, 0x04, 0x0d, 0x0d,
  0xe1, 0x0b, 0x01, 0x16, 0xf6, 0xed, 0x09, 0xde, 0xe8, 0xed, 0x1f, 0xe7,
  0xfd, 0xed, 0xf7, 0x1b, 0xfb, 0x0a, 0xf7, 0x1c, 0xd6, 0x0b, 0x0a, 0x07,
  0xfb, 0x06, 0x19, 0xdf, 0xf2, 0x10, 0x1f, 0xf1, 0x11, 0xfd, 0xfd, 0x1e,
  0xf5, 0x12, 0x25, 0xf4, 0xf5, 0x03, 0x18, 0xe5, 0xfa, 0xff, 0x01, 0x0c,
  0xfc, 0xfe, 0x06, 0x0e, 0x17, 0xf6, 0xff, 0x0a, 0xf8, 0x16, 0x13, 0xed,
  0xf8, 0x05, 0xe3, 0xf5, 0xe4, 0x07, 0x02, 0xf6, 0x14, 0xf0, 0x15, 0x05,
  0xe3, 0x1b, 0x08, 0xdc, 0x0b, 0xf5, 0xe2, 0xf3, 0xe1, 0x02, 0xfd, 0x1c,
  0x13, 0x05, 0x12, 0x08, 0x1c, 0x16, 0x0d, 0xf6, 0xfb, 0xef, 0xea, 0xe7,
  0x01, 0x01, 0xfc, 0x20, 0x08, 0x1f, 0xf7, 0xf5, 0x0b, 0x0b, 0x16, 0xf3,
  0x06, 0x03, 0xe1, 0xe7, 0x0a, 0xf9, 0x04, 0x01, 0x15, 0xea, 0xf5, 0x0a,
  0x04, 0xfc, 0x1e, 0xef, 0x00, 0x08, 0x0b, 0xe3, 0x17, 0x05, 0x09, 0x1e,
  0x1c, 0xf3, 0xfd, 0x0e, 0x10, 0x1a, 0x13, 0x01, 0x0a, 0x00, 0xdd, 0xe7,
  0xe8, 0xff, 0xfc, 0xf5, 0x1b, 0xfa, 0xfb, 0x0a, 0x1b, 0x0b, 0xed, 0xef,
  0xfe, 0xe9, 0xfe, 0xdb, 0xf4, 0xf6, 0x02, 0x0d, 0xfe, 0xf2, 0xe6, 0x09,
  0x1f, 0xf1, 0x11, 0x0b, 0x02, 0xcf, 0xf9, 0xe8, 0x08, 0x03, 0x00, 0x10,
  0xed, 0x1d, 0xf3, 0xf1, 0x2b, 0x08, 0xe9, 0x14, 0xfe, 0xdd, 0xea, 0xfd,
  0x1d, 0x05, 0xfe, 0xdb, 0xe8, 0xf5, 0x05, 0x0b, 0x0f, 0x00, 0xd8, 0x13,
  0xfa, 0xe6, 0x05, 0xfb, 0x16, 0xf8, 0x05, 0xd1, 0x01, 0x0f, 0xec, 0x0a,
  0x15, 0xf0, 0xf7, 0x0a, 0x01, 0x07, 0xec, 0xd3, 0xf6, 0x08, 0xfe, 0xfd,
  0xf4, 0xfe, 0xe4, 0x14, 0xdd, 0xdb, 0xe0, 0xf1, 0x09, 0xe4, 0xe0, 0xf7,
  0xd7, 0x04, 0x04, 0xda, 0xe9, 0xe9, 0x0d, 0x01, 0x05, 0xdd, 0xdd, 0xfe,
  0xfe, 0xda, 0xee, 0x29, 0xed, 0xfb, 0xfe, 0x13, 0x04, 0xf7, 0xf9, 0xfb,
  0xf1, 0xf5, 0x2f, 0xeb, 0x05, 0x15, 0x1d, 0x32, 0x1d, 0x04, 0xf8, 0x1a,
  0xcc, 0x1c, 0xe4, 0xe2, 0x19, 0xe4, 0x29, 0x14, 0x02, 0x23, 0xe0, 0x01,
  0xec, 0xfd, 0x00, 0xf0, 0x0a, 0x10, 0xf8, 0xf0, 0xd0, 0xe1, 0xf2, 0x0e,
  0x05, 0x01, 0xfe, 0xb4, 0xdb, 0x05, 0xfb, 0xd4, 0x0c, 0xf6, 0x1b, 0xd7,
  0xf0, 0x12, 0xe9, 0xe4, 0xfc, 0xd4, 0x15, 0xcf, 0xdb, 0xf7, 0x01, 0xec,
  0xfe, 0xfa, 0x05, 0xf7, 0x1c, 0x0b, 0xdf, 0x01, 0x08, 0xd4, 0xfd, 0xec,
  0xc4, 0x07, 0x02, 0x1a, 0xed, 0xcc, 0xfc, 0xfc, 0x19, 0xee, 0x35, 0xe0,
  0x0b, 0x03, 0x01, 0xfd, 0xd5, 0xf6, 0x02, 0x01, 0xf2, 0xf2, 0xf9, 0xf8,
  0x08, 0x16, 0xf8, 0x00, 0x09, 0x20, 0x21, 0xfc, 0x03, 0xf9, 0x04, 0x0e,
  0x13, 0x0d, 0x09, 0xec, 0xf1, 0x13, 0xf0, 0x21, 0x07, 0xe9, 0x0c, 0xe1,
  0xe9, 0x02, 0x09, 0xe3, 0xf5, 0x15, 0x18, 0xc5, 0xf3, 0x10, 0xee, 0xeb,
  0xf5, 0xfb, 0x04, 0xf6, 0xe3, 0x06, 0x05, 0x27, 0x10, 0xf0, 0x0c, 0x54,
  0xe1, 0xe9, 0xff, 0x11, 0x0b, 0xff, 0xf5, 0x08, 0xea, 0xf5, 0xfa, 0x2a,
  0x13, 0x0b, 0x13, 0x1f, 0x15, 0xe1, 0xfc, 0x0b, 0x02, 0xf3, 0x07, 0x19,
  0xfa, 0x02, 0x00, 0x10, 0xdf, 0x08, 0x1b, 0x22, 0x10, 0xe6, 0xf8, 0x13,
  0x01, 0x03, 0x1c, 0x2b, 0xe6, 0xfc, 0xff, 0x1b, 0xee, 0x04, 0x07, 0x0f,
  0x03, 0x08, 0xe5, 0x0f, 0x08, 0xf6, 0xfe, 0x16, 0x13, 0x08, 0xf3, 0xd2,
  0xf5, 0x06, 0xfd, 0xf1, 0xea, 0x26, 0xd3, 0xca, 0x02, 0x00, 0x0e, 0x24,
  0xed, 0x0b, 0xf3, 0x04, 0x05, 0xf8, 0x08, 0xe7, 0x11, 0x33, 0xf2, 0x9d,
  0x03, 0xf4, 0x00, 0x19, 0xfd, 0x04, 0x0b, 0xd4, 0x0b, 0xde, 0x01, 0xd7,
  0xe1, 0x2c, 0x04, 0xcf, 0xf8, 0xe3, 0xee, 0x16, 0x14, 0xf5, 0x04, 0xea,
  0x0c, 0xdd, 0xfc, 0xd5, 0xee, 0x13, 0xe9, 0xc5, 0xfc, 0xef, 0x0a, 0xfe,
  0x17, 0xf4, 0x03, 0xf8, 0xfd, 0xec, 0xff, 0xca, 0xf8, 0x16, 0xf7, 0xdf,
  0x06, 0x0e, 0xec, 0xda, 0x14, 0x04, 0xfc, 0x13, 0xf5, 0xed, 0x02, 0x07,
  0xe7, 0x13, 0x06, 0xfa, 0xf5, 0xef, 0xfb, 0xc6, 0x09, 0xfd, 0xf6, 0xf7,
  0xfa, 0xf3, 0xf6, 0xd4, 0xdd, 0xe2, 0xdf, 0xd0, 0x09, 0xfd, 0xdb, 0xd7,
  0x03, 0xf9, 0x07, 0x0d, 0xee, 0x01, 0xf0, 0xf6, 0xe2, 0xd6, 0xf8, 0x2e,
  0xff, 0xf7, 0xda, 0xd5, 0x00, 0x01, 0xfd, 0xe9, 0xf6, 0xf7, 0xf8, 0x02,
  0xfa, 0xd7, 0xf6, 0xeb, 0xfc, 0x1a, 0x0c, 0x1a, 0xcb, 0x0c, 0x04, 0x01,
  0xf7, 0x05, 0xea, 0x30, 0xdc, 0xfe, 0xff, 0xde, 0xfb, 0x12, 0x00, 0xeb,
  0xf1, 0x04, 0xfc, 0xfa, 0x32, 0x08, 0xde, 0x26, 0xe5, 0xef, 0x07, 0xd9,
  0x00, 0x06, 0x0f, 0xef, 0xea, 0xfe, 0xff, 0xc5, 0x02, 0x0b, 0xf8, 0x00,
  0xb9, 0xed, 0xbc, 0xb9, 0x03, 0xec, 0x12, 0xeb, 0xae, 0x04, 0x00, 0xe2,
  0x1c, 0x11, 0x16, 0x04, 0xe3, 0xfa, 0x16, 0xdf, 0xff, 0xd6, 0xf6, 0xfc,
  0xc2, 0x06, 0x07, 0x06, 0xea, 0xfd, 0xf8, 0xfd, 0x07, 0xfe, 0x32, 0xf8,
  0x01, 0x0b, 0xd7, 0x2a, 0xd0, 0xfc, 0x04, 0xe5, 0xf9, 0xfa, 0xca, 0x19,
  0xcf, 0x13, 0xfa, 0xce, 0x08, 0x02, 0xec, 0xf1, 0xc6, 0x0b, 0xf5, 0xc5,
  0x1c, 0xfd, 0x01, 0x11, 0xce, 0xfa, 0xe9, 0xc6, 0x06, 0xd8, 0xe8, 0xe9,
  0xea, 0xfe, 0xfc, 0x0d, 0xdf, 0xf2, 0xf9, 0x22, 0xbb, 0xe8, 0x26, 0xec,
  0x06, 0x0d, 0x00, 0x1c, 0xe8, 0xff, 0x00, 0x20, 0xed, 0xfe, 0xec, 0x18,
  0xd0, 0xf1, 0x26, 0xff, 0x0b, 0x11, 0x03, 0xf6, 0xce, 0x05, 0x02, 0xff,
  0x0c, 0x0a, 0xf6, 0xfc, 0xf9, 0xef, 0xfc, 0xeb, 0x01, 0x02, 0x1a, 0xe3,
  0xe5, 0x08, 0x04, 0xf3, 0xf9, 0x12, 0x04, 0x03, 0xe7, 0xe8, 0xf4, 0xb5,
  0x03, 0xe1, 0x12, 0xdf, 0x08, 0x03, 0xf9, 0xfe, 0x10, 0x1a, 0x07, 0xff,
  0x00, 0x0c, 0x1a, 0xbd, 0xfc, 0xf6, 0x1f, 0xe6, 0xe0, 0x09, 0xfd, 0x11,
  0xf9, 0xfe, 0xf4, 0xfb, 0xee, 0xc8, 0x1f, 0x06, 0xf9, 0xfe, 0x01, 0xfa,
  0xff, 0xff, 0x06, 0xd7, 0xd9, 0xf0, 0xfb, 0xff, 0xf4, 0xf9, 0xc8, 0xf2,
  0x08, 0xee, 0x00, 0xdd, 0x18, 0xfa, 0xfc, 0xf0, 0xe9, 0xf9, 0xee, 0x12,
  0xd8, 0x08, 0xe1, 0x06, 0x07, 0xfa, 0x07, 0xfb, 0x0e, 0x02, 0xf6, 0xd7,
  0xd8, 0x11, 0xe4, 0xf2, 0xe2, 0x23, 0x0d, 0xf5, 0x0c, 0xd7, 0x06, 0xff,
  0x04, 0xf8, 0x00, 0xba, 0xe9, 0xe9, 0xdf, 0xdf, 0xdd, 0x10, 0x04, 0x11,
  0x03, 0xeb, 0x2c, 0x10, 0x05, 0x0b, 0xfd, 0xb4, 0x01, 0xf7, 0xe0, 0xef,
  0x0b, 0x25, 0xf8, 0x06, 0xf7, 0x11, 0x01, 0x18, 0x05, 0xfb, 0x00, 0xee,
  0x03, 0xf1, 0xdb, 0x0c, 0xf7, 0x13, 0x12, 0x06, 0xff, 0x1d, 0xd9, 0x15,
  0xf9, 0x03, 0x04, 0x09, 0xff, 0xf3, 0x0c, 0x10, 0x00, 0xff, 0x16, 0xfc,
  0xff, 0x29, 0x23, 0xfd, 0xfb, 0x09, 0xfc, 0x12, 0xfc, 0x1e, 0x17, 0x09,
  0x0a, 0xf5, 0x20, 0x02, 0x03, 0x23, 0xf1, 0xf0, 0xd5, 0xf8, 0xfa, 0x03,
  0xf7, 0x04, 0x03, 0x07, 0x0b, 0xd3, 0xe9, 0xdd, 0x0e, 0x0f, 0xfc, 0xdc,
  0x02, 0xfe, 0x03, 0x05, 0x17, 0x07, 0x03, 0x00, 0xf8, 0xd3, 0xe2, 0xd1,
  0x09, 0xdd, 0x08, 0xdb, 0x01, 0xfd, 0x04, 0xf0, 0xef, 0xf4, 0xf8, 0xce,
  0xf5, 0xc4, 0x04, 0xe6, 0x06, 0xc6, 0x11, 0x00, 0x00, 0xfd, 0xf5, 0xfa,
  0xfa, 0xca, 0xf9, 0xf2, 0xf9, 0xf0, 0xf5, 0xf6, 0x0f, 0xe0, 0x0e, 0x23,
  0xeb, 0xf9, 0x00, 0xf1, 0xfb, 0xf0, 0x06, 0xfe, 0xce, 0x23, 0x01, 0xdc,
  0xff, 0x0f, 0x05, 0xb3, 0xe7, 0x01, 0xff, 0x00, 0xe6, 0xfd, 0x29, 0xe3,
  0xe3, 0x0d, 0x07, 0xef, 0xf9, 0xfc, 0xfc, 0xdc, 0x03, 0xfa, 0x03, 0x14,
  0xf1, 0x02, 0x0b, 0x07, 0xfe, 0xf8, 0x08, 0xdb, 0xfd, 0xf8, 0xe2, 0xf9,
  0x02, 0x00, 0x04, 0x06, 0xf3, 0xff, 0x1f, 0xe5, 0xe6, 0xf6, 0xfa, 0xe9,
  0x04, 0xdd, 0xeb, 0xdc, 0x06, 0x06, 0x06, 0xee, 0xc5, 0xe7, 0xfa, 0xc8,
  0x04, 0xf7, 0x03, 0xfd, 0xf6, 0xe0, 0xee, 0xd3, 0xf4, 0x08, 0x08, 0x11,
  0xe7, 0xd9, 0xe9, 0x0a, 0xea, 0x13, 0x14, 0x15, 0xfe, 0xe1, 0xfa, 0x13,
  0x31, 0xf8, 0xfb, 0xfd, 0x13, 0xe0, 0xdd, 0x01, 0x18, 0x14, 0x24, 0x1a,
  0xf7, 0xe9, 0xf8, 0x0a, 0x2a, 0xff, 0x06, 0x0a, 0x16, 0x0c, 0xf0, 0x16,
  0x00, 0xe4, 0x1d, 0x09, 0x04, 0xd0, 0xe9, 0x00, 0xe9, 0xfb, 0xf8, 0xf4,
  0x19, 0x1b, 0x0c, 0x05, 0xe6, 0x07, 0x1a, 0x0c, 0xf7, 0xd3, 0x13, 0xee,
  0xde, 0xfb, 0x0b, 0x02, 0x15, 0x1f, 0xe3, 0xe9, 0xf4, 0xf9, 0x02, 0x10,
  0x03, 0xea, 0xf1, 0xd1, 0x19, 0xfc, 0xfa, 0x09, 0xea, 0x26, 0xcd, 0xf0,
  0x1a, 0xdc, 0x10, 0x14, 0xff, 0xee, 0x0b, 0xe6, 0x16, 0x0a, 0x08, 0x16,
  0xf8, 0x13, 0xa8, 0x11, 0x1d, 0xe1, 0xfa, 0x0e, 0x00, 0xf6, 0xe7, 0xf6,
  0x1d, 0xfb, 0xf8, 0x1d, 0x32, 0xf8, 0xe3, 0x27, 0x23, 0xe2, 0x30, 0x05,
  0x02, 0xca, 0xe9, 0xdb, 0xce, 0xfe, 0x06, 0x13, 0x40, 0x01, 0xdc, 0x07,
  0x02, 0xed, 0x25, 0xe9, 0x09, 0x11, 0xef, 0x1b, 0x25, 0xf9, 0x03, 0xd0,
  0xe6, 0xe8, 0x02, 0xd0, 0xe6, 0x20, 0x03, 0x19, 0x01, 0xf8, 0x2d, 0x23,
  0x0a, 0xf9, 0x04, 0xee, 0xee, 0xef, 0x07, 0xe3, 0xdd, 0x28, 0x23, 0xfb,
  0xfe, 0x16, 0x27, 0x0a, 0xf4, 0x03, 0x06, 0x00, 0x09, 0x05, 0x0d, 0xdb,
  0xff, 0x03, 0x1e, 0xf6, 0xfc, 0x30, 0x18, 0x08, 0xfa, 0x00, 0xfa, 0x02,
  0xf2, 0x01, 0xfa, 0xdc, 0xf3, 0xf3, 0x07, 0xf3, 0xf9, 0x30, 0x09, 0x02,
  0x06, 0xf7, 0x09, 0xdf, 0x03, 0xd4, 0x3c, 0xd0, 0x0a, 0xd5, 0xc8, 0xde,
  0xf5, 0x08, 0x2f, 0xef, 0xf1, 0xfa, 0xf7, 0xd2, 0xff, 0xd9, 0x19, 0xdd,
  0x00, 0xdf, 0xfc, 0xdc, 0xf5, 0xef, 0xed, 0xfc, 0xe5, 0x01, 0x06, 0xca,
  0xed, 0xd2, 0xf1, 0xf6, 0xf2, 0xc7, 0xf2, 0xef, 0xff, 0xf2, 0x1b, 0x20,
  0x17, 0x0a, 0x04, 0xee, 0xe5, 0xf2, 0xdf, 0xe3, 0x0a, 0xed, 0xe7, 0xe6,
  0x03, 0xe0, 0xf4, 0x07, 0xe2, 0x04, 0xf9, 0xeb, 0x07, 0x04, 0xf6, 0xf8,
  0x03, 0x16, 0xd7, 0xdf, 0xfd, 0xea, 0xfb, 0xf9, 0x14, 0xf7, 0xfe, 0x29,
  0xe2, 0x16, 0xe7, 0xc8, 0x20, 0xfe, 0xec, 0xe5, 0xfa, 0xfc, 0xed, 0xff,
  0xfd, 0x05, 0xf7, 0xe9, 0x1e, 0x12, 0xff, 0xc8, 0x1f, 0x0d, 0xf9, 0xd7,
  0xfe, 0xe9, 0x05, 0xfc, 0xca, 0x05, 0xfe, 0xf2, 0xef, 0x2a, 0xf6, 0xdb,
  0x0d, 0x20, 0xf6, 0xd3, 0x01, 0xeb, 0x11, 0x19, 0x08, 0xf7, 0xf8, 0xfc,
  0x03, 0x1d, 0x03, 0xd1, 0xde, 0x2f, 0xef, 0x1d, 0x0b, 0xea, 0x00, 0xc7,
  0x02, 0xff, 0x0c, 0xf8, 0xfe, 0xe7, 0x12, 0xbb, 0xf1, 0xf1, 0xfa, 0xf5,
  0x03, 0xfb, 0xf5, 0xed, 0xf7, 0x06, 0x03, 0x0c, 0xdd, 0xe9, 0xfd, 0xe9,
  0xe2, 0xe5, 0x0f, 0x09, 0x04, 0xed, 0xf3, 0xdf, 0xf4, 0x01, 0xfe, 0x1e,
  0xe8, 0xf2, 0xfd, 0x08, 0xf8, 0xee, 0x0d, 0x0c, 0x05, 0xee, 0xfc, 0x04,
  0x04, 0xf7, 0x01, 0x1f, 0xe8, 0x01, 0xfd, 0x26, 0x00, 0xec, 0x0a, 0x13,
  0xfe, 0xf8, 0xe9, 0x0e, 0xf8, 0xfe, 0x09, 0x21, 0xf8, 0x0c, 0x08, 0x24,
  0x0d, 0xe0, 0xfb, 0x18, 0xfb, 0x00, 0xf1, 0x1d, 0xf9, 0x05, 0x09, 0x12,
  0xf4, 0x0b, 0xf9, 0x16, 0x15, 0xe5, 0xf6, 0x1e, 0x01, 0xfc, 0xf2, 0x30,
  0xfa, 0x03, 0xfc, 0x19, 0x0e, 0x19, 0xe5, 0x12, 0x07, 0xfc, 0xf3, 0x10,
  0x00, 0xfe, 0x01, 0x20, 0x09, 0x07, 0xfb, 0x02, 0x07, 0x11, 0xef, 0x1e,
  0x0a, 0x00, 0xe0, 0x0e, 0xfd, 0xf6, 0x14, 0x28, 0xfd, 0xf9, 0x0d, 0x12,
  0x1d, 0x20, 0xf1, 0x16, 0x2d, 0xee, 0xcd, 0xf6, 0x07, 0x04, 0x04, 0x18,
  0xf7, 0x07, 0x07, 0xf2, 0x24, 0x12, 0x02, 0xfe, 0x23, 0x0d, 0xe7, 0xe1,
  0x01, 0xfd, 0x13, 0x10, 0xf8, 0xfd, 0xf9, 0xca, 0x14, 0x01, 0xff, 0xe5,
  0xfc, 0x0a, 0xe8, 0xe3, 0xf5, 0x11, 0xff, 0x0a, 0xe9, 0x09, 0xfd, 0xe5,
  0xfd, 0xf0, 0x08, 0xe5, 0x0f, 0x15, 0xec, 0xd3, 0xfb, 0x0c, 0xe1, 0x09,
  0xed, 0x08, 0x02, 0xf4, 0x01, 0xea, 0xf1, 0xce, 0xf9, 0x17, 0xfd, 0xf4,
  0x05, 0xff, 0xf9, 0xf0, 0xf9, 0x00, 0x02, 0xf2, 0x2d, 0x09, 0x0a, 0x1a,
  0x00, 0xfe, 0xf9, 0xf1, 0x08, 0xf3, 0xeb, 0x12, 0xea, 0xf5, 0xfd, 0xe0,
  0xfe, 0x06, 0xe6, 0xf0, 0x0f, 0xfa, 0xdb, 0xf8, 0xf5, 0x0e, 0xfc, 0x0d,
  0xc2, 0x08, 0x06, 0xef, 0x0b, 0x0a, 0xfa, 0xda, 0x0f, 0x03, 0xdc, 0xb8,
  0x01, 0xfb, 0x06, 0x1c, 0xf5, 0x00, 0xff, 0xeb, 0x07, 0x04, 0x02, 0xd7,
  0xf8, 0xfc, 0xe9, 0xf2, 0xfa, 0xfe, 0x08, 0x0e, 0x13, 0xfa, 0xf5, 0xce,
  0x0a, 0xee, 0xfa, 0xdc, 0xf4, 0xfe, 0x0c, 0xf8, 0x01, 0xfc, 0x29, 0xe1,
  0xff, 0xfa, 0x01, 0xfc, 0x28, 0x01, 0x0f, 0x06, 0xef, 0xf6, 0x06, 0x1c,
  0xfe, 0xf6, 0xfc, 0xc8, 0xf8, 0x02, 0x03, 0x24, 0xfd, 0xf0, 0x05, 0x1b,
  0x03, 0xed, 0xfc, 0x28, 0x06, 0xec, 0x21, 0xf6, 0xed, 0x02, 0xfe, 0x17,
  0xdb, 0xf2, 0xf8, 0x21, 0x12, 0xf4, 0xf8, 0x20, 0xf7, 0xf2, 0x17, 0x04,
  0xfb, 0x05, 0xfd, 0x1e, 0xe6, 0xf0, 0xfa, 0x16, 0xf5, 0xf4, 0xf1, 0x34,
  0xfd, 0xf2, 0xf1, 0x10, 0xf7, 0x07, 0xf7, 0x1d, 0xe3, 0xfd, 0x01, 0x28,
  0xf0, 0x01, 0xf1, 0x2b, 0x02, 0xf8, 0x1b, 0x32, 0xf5, 0x06, 0xf9, 0x17,
  0xec, 0xff, 0x08, 0x12, 0xf5, 0x01, 0xe2, 0x18, 0xf6, 0xf4, 0x1a, 0x24,
  0xef, 0xf9, 0x07, 0x1f, 0xeb, 0xf0, 0x04, 0x0f, 0xf6, 0x0e, 0xdd, 0x28,
  0xf9, 0x08, 0x11, 0x48, 0x02, 0xfd, 0xf4, 0x25, 0xf2, 0xf4, 0x05, 0x1e,
  0xda, 0x1d, 0xf2, 0x15, 0x09, 0x01, 0x05, 0xfe, 0x0c, 0x00, 0xfc, 0xff,
  0xc4, 0x11, 0xfc, 0x24, 0x00, 0xe8, 0xe6, 0xd9, 0xff, 0xe5, 0xf5, 0xe8,
  0xee, 0xf9, 0x07, 0x1d, 0xec, 0x00, 0x09, 0x13, 0xf4, 0xcc, 0xfb, 0xdd,
  0xfd, 0xfb, 0xe4, 0xee, 0xf0, 0x04, 0x07, 0x0b, 0x19, 0x11, 0xfb, 0xf3,
  0x04, 0xf5, 0xe0, 0xf6, 0xf6, 0xcf, 0xd4, 0xed, 0x10, 0xfa, 0xf9, 0x0e,
  0xdb, 0xfe, 0x0d, 0xfb, 0xf9, 0x0b, 0x02, 0xfe, 0xfc, 0xd0, 0x07, 0xff,
  0x21, 0x06, 0x06, 0xeb, 0xd7, 0xf3, 0xf3, 0xf6, 0xe6, 0x24, 0xf0, 0x08,
  0xfe, 0xdf, 0xf9, 0xff, 0x21, 0xfd, 0xf9, 0xd4, 0xfd, 0xf5, 0xee, 0xfc,
  0xe2, 0x37, 0xe4, 0x14, 0x0c, 0xf2, 0xfc, 0x12, 0x09, 0x02, 0x04, 0xcb,
  0xd8, 0xe5, 0xd9, 0x08, 0xf5, 0x30, 0xec, 0x1d, 0xf7, 0x05, 0x1c, 0x16,
  0xfd, 0xfc, 0xf8, 0xd8, 0x03, 0x0a, 0xe1, 0x02, 0xed, 0x35, 0x01, 0x10,
  0xf7, 0x14, 0xf8, 0xf9, 0x15, 0xfa, 0x00, 0xe7, 0xfd, 0x15, 0xf8, 0x0d,
  0x1d, 0xf6, 0xf1, 0xf2, 0xf8, 0x24, 0x0b, 0x04, 0xdb, 0x00, 0x09, 0xf4,
  0x12, 0x03, 0xfd, 0x24, 0x18, 0xcf, 0xeb, 0xe4, 0xf1, 0x12, 0xfa, 0xf9,
  0xed, 0xff, 0x06, 0xfb, 0xf9, 0x09, 0xff, 0x04, 0xf9, 0xcf, 0xe1, 0xf0,
  0xf5, 0x05, 0x00, 0xf9, 0x02, 0xf9, 0xfb, 0x11, 0xfe, 0x09, 0x06, 0xff,
  0x0c, 0xc4, 0x04, 0xe4, 0x14, 0xe8, 0x1a, 0xe3, 0xff, 0xff, 0x01, 0xe5,
  0xed, 0x15, 0xfc, 0xf5, 0x04, 0xc4, 0xe2, 0xa9, 0x06, 0xfb, 0xf7, 0x00,
  0xf5, 0xff, 0x04, 0x10, 0xd4, 0x0d, 0x0c, 0xd7, 0x01, 0xf9, 0xe2, 0x24,
  0xff, 0xe6, 0xf2, 0xf1, 0x01, 0x06, 0xf6, 0x0b, 0xea, 0xf2, 0x09, 0x18,
  0x13, 0xf7, 0xe2, 0x19, 0xf7, 0xfa, 0x10, 0xf6, 0x0e, 0xff, 0x09, 0xf2,
  0x09, 0x05, 0x03, 0x02, 0x2f, 0x09, 0xe6, 0x02, 0xfa, 0xdf, 0x24, 0x0a,
  0xfa, 0x02, 0x02, 0xf5, 0x06, 0xfe, 0xf9, 0x03, 0x27, 0xfc, 0xf3, 0x1b,
  0xf1, 0xe1, 0xe5, 0xfb, 0x06, 0x02, 0xfa, 0x0e, 0xf7, 0xf9, 0xfa, 0x09,
  0x0d, 0xfe, 0xe1, 0x20, 0x07, 0xdb, 0x1f, 0x05, 0x0a, 0x03, 0x04, 0x08,
  0xd9, 0x15, 0x05, 0x01, 0xf5, 0xf3, 0xef, 0x05, 0xff, 0xd4, 0xf0, 0x00,
  0xe2, 0xfc, 0xf4, 0x0d, 0xe7, 0x15, 0xff, 0x1a, 0x06, 0x05, 0xd6, 0x00,
  0xff, 0xde, 0xf2, 0x07, 0xf3, 0xfe, 0xfe, 0x12, 0x09, 0x19, 0xfc, 0x0b,
  0x1a, 0x01, 0xfb, 0x0b, 0x07, 0xcd, 0xf0, 0xfb, 0xf8, 0x07, 0x0f, 0x16,
  0x0e, 0x0f, 0x13, 0x10, 0x1d, 0xf6, 0xf4, 0x0b, 0x09, 0xc5, 0x12, 0x13,
  0x01, 0x03, 0x08, 0xfd, 0xe9, 0xfb, 0x13, 0x15, 0x16, 0x04, 0xde, 0x20,
  0x02, 0xe6, 0x09, 0xf5, 0xec, 0x04, 0x01, 0xf5, 0x02, 0xf6, 0x05, 0xf2,
  0xe7, 0x00, 0xf1, 0xe6, 0xff, 0xe1, 0xfb, 0x00, 0xd7, 0x04, 0xfd, 0xeb,
  0xed, 0xf8, 0x01, 0xf0, 0xe8, 0xe9, 0xee, 0xc7, 0xf4, 0xc9, 0x1d, 0x01,
  0xe1, 0xfd, 0x02, 0xf4, 0x0a, 0x18, 0x10, 0xdb, 0xda, 0xfa, 0xd8, 0xe7,
  0x0b, 0x1b, 0x08, 0x29, 0x10, 0x00, 0xff, 0xea, 0xfb, 0xed, 0x05, 0xd5,
  0x0c, 0x1b, 0xd9, 0x09, 0x04, 0x09, 0xfe, 0x1b, 0x11, 0xfb, 0xfe, 0xfd,
  0xe6, 0xfb, 0x02, 0xe3, 0x0b, 0x19, 0x02, 0x16, 0x00, 0x0e, 0x00, 0xf4,
  0x19, 0xfe, 0xfd, 0xf9, 0xe7, 0x0e, 0x09, 0xf4, 0x0e, 0x0c, 0x0f, 0x10,
  0x02, 0x10, 0xe2, 0xeb, 0x11, 0x09, 0xff, 0x08, 0x06, 0x01, 0x05, 0xec,
  0xf4, 0x0d, 0x1f, 0x11, 0xfd, 0x23, 0x13, 0xef, 0x03, 0x04, 0xfa, 0xf0,
  0xfb, 0x09, 0x16, 0x00, 0x03, 0xe3, 0x25, 0x10, 0xff, 0x12, 0x07, 0xeb,
  0xec, 0x09, 0xfb, 0xfa, 0x08, 0x14, 0x18, 0x0c, 0x0d, 0xd5, 0x2a, 0x04,
  0x0b, 0x19, 0x11, 0xe5, 0xf6, 0xf8, 0x03, 0x0d, 0xea, 0x00, 0x15, 0x01,
  0x00, 0xd0, 0x18, 0x05, 0xf9, 0x06, 0xe1, 0xc6, 0xfe, 0xfb, 0x04, 0x02,
  0x1c, 0xf8, 0x00, 0xf6, 0x07, 0xc0, 0x13, 0x02, 0xf8, 0xf4, 0xfa, 0xe3,
  0xd8, 0xfe, 0xf5, 0xfd, 0x03, 0xe5, 0xf9, 0x02, 0x02, 0xc0, 0x03, 0xe7,
  0x00, 0xf0, 0x05, 0xe8, 0xef, 0x06, 0xfc, 0x0a, 0xf1, 0xf3, 0x04, 0x19,
  0xf3, 0xe9, 0x09, 0xea, 0x02, 0xfb, 0xfb, 0xe9, 0xcf, 0x04, 0x00, 0xf2,
  0xec, 0x09, 0x09, 0xee, 0x0c, 0xfb, 0x07, 0xeb, 0x06, 0xf0, 0xfa, 0xf9,
  0xf6, 0x06, 0x05, 0x09, 0xfe, 0xf4, 0x04, 0x0e, 0xe5, 0x16, 0x05, 0xe7,
  0x04, 0xf4, 0x07, 0xf6, 0x0d, 0x00, 0x09, 0xfa, 0x07, 0x0d, 0xfe, 0xe5,
  0xf6, 0x04, 0x02, 0xf0, 0xf5, 0xd5, 0xf0, 0xe1, 0x0a, 0xfd, 0x01, 0xf9,
  0x17, 0xf9, 0xed, 0xb3, 0x1f, 0x06, 0x1a, 0xfa, 0x01, 0xde, 0xf8, 0xde,
  0x0c, 0xfb, 0x00, 0xf1, 0x10, 0x02, 0xf6, 0xd4, 0xfe, 0xfd, 0x03, 0xf2,
  0x06, 0x00, 0x08, 0xef, 0x00, 0xfe, 0xff, 0xf1, 0x17, 0xf8, 0xf6, 0xe9,
  0x00, 0x15, 0x06, 0xf0, 0xfc, 0x10, 0xfe, 0x00, 0x22, 0x01, 0x00, 0xe5,
  0x20, 0xfb, 0xf7, 0xe4, 0xfa, 0x12, 0x05, 0xef, 0xfd, 0x17, 0x2f, 0xfb,
  0x10, 0xfb, 0xfb, 0xe1, 0x1a, 0x1a, 0xfe, 0xe4, 0xff, 0x11, 0x22, 0xe8,
  0x02, 0x08, 0x14, 0xeb, 0x18, 0x03, 0x04, 0xf0, 0x04, 0x1e, 0xeb, 0x06,
  0xf3, 0x03, 0xf6, 0xf8, 0x01, 0x0d, 0xf8, 0x03, 0x06, 0xfa, 0x06, 0xf4,
  0x09, 0x07, 0xf5, 0xf3, 0x00, 0x05, 0xfe, 0xf6, 0x0f, 0x00, 0x01, 0xfe,
  0x14, 0xfa, 0x03, 0xe5, 0x0b, 0x13, 0x03, 0x0a, 0x07, 0x12, 0xf5, 0x0b,
  0x06, 0x10, 0xef, 0x00, 0x1f, 0xfb, 0xf4, 0xe0, 0x11, 0x06, 0xfd, 0xf7,
  0x07, 0x0f, 0xf2, 0x03, 0x01, 0x0e, 0x02, 0x0b, 0x00, 0x06, 0xfa, 0xef,
  0x1e, 0xda, 0x09, 0x18, 0xf2, 0x08, 0x17, 0x03, 0x00, 0x15, 0xfc, 0x08,
  0x09, 0xf8, 0xf5, 0xf6, 0xff, 0xd8, 0x12, 0x03, 0xe4, 0x19, 0xf7, 0xfe,
  0xfd, 0x17, 0xfe, 0xed, 0xff, 0xfc, 0x06, 0xef, 0x03, 0xec, 0x09, 0xee,
  0xf3, 0x09, 0xfe, 0x02, 0x0a, 0x3d, 0x16, 0xf7, 0x0a, 0xfd, 0xfb, 0xfb,
  0xf3, 0xb8, 0xfb, 0x06, 0xeb, 0xe2, 0xfc, 0xf8, 0x0e, 0xf8, 0xf7, 0x15,
  0x38, 0x07, 0xf9, 0xe9, 0xea, 0xc2, 0xf9, 0x05, 0xfc, 0x1e, 0xf7, 0x14,
  0xfe, 0xf2, 0x03, 0x0e, 0x25, 0x05, 0x05, 0x04, 0x07, 0xb8, 0xd9, 0x10,
  0x0c, 0x17, 0xfd, 0x03, 0x03, 0x05, 0xe4, 0x10, 0x2b, 0x00, 0x09, 0x07,
  0x11, 0xdd, 0xce, 0x0c, 0x15, 0x18, 0x1b, 0x0a, 0xfb, 0xf5, 0xe1, 0x0c,
  0x26, 0xf4, 0xfb, 0xee, 0x04, 0x0b, 0xd0, 0x1f, 0x16, 0x1e, 0xf7, 0x14,
  0xf8, 0xf1, 0x12, 0x0c, 0x2e, 0x00, 0xf9, 0x07, 0x03, 0x22, 0xc6, 0x25,
  0x08, 0x19, 0xf8, 0x18, 0xfa, 0xdd, 0xfc, 0xec, 0x21, 0x05, 0xf8, 0x05,
  0x17, 0x30, 0xe0, 0x06, 0x09, 0xf3, 0x01, 0x17, 0xff, 0xf3, 0x18, 0xe2,
  0xe2, 0x05, 0x02, 0xfb, 0x29, 0x2d, 0xe0, 0x10, 0xfe, 0xd1, 0x08, 0xf2,
  0x07, 0xf1, 0x13, 0xc1, 0xda, 0xfd, 0x02, 0x0b, 0x08, 0x1f, 0xe9, 0x12,
  0x15, 0xe9, 0xed, 0xff, 0x06, 0xf1, 0xeb, 0xcc, 0xf8, 0x09, 0x09, 0xfa,
  0xec, 0x1a, 0xf6, 0x11, 0x00, 0x09, 0x0e, 0xc8, 0x07, 0x03, 0x0c, 0xe3,
  0xdb, 0x05, 0xfa, 0xf7, 0xd3, 0x1c, 0xf5, 0xe1, 0xf9, 0xf7, 0x08, 0xca,
  0x04, 0xf0, 0xe8, 0xe9, 0xd4, 0x09, 0x06, 0xbb, 0xe3, 0xf9, 0x0a, 0xc2,
  0xe8, 0xf0, 0xe9, 0xc1, 0xff, 0xf1, 0x06, 0x19, 0xe2, 0x07, 0x0c, 0xdc,
  0xf3, 0xde, 0x24, 0xe3, 0xcd, 0xf5, 0x03, 0xe9, 0x0e, 0xf2, 0xe2, 0x2c,
  0x20, 0xf5, 0x03, 0xf0, 0xd0, 0xd9, 0x03, 0xe7, 0x13, 0x1e, 0xee, 0x05,
  0x07, 0x02, 0x0e, 0xfe, 0xfa, 0x0a, 0x0a, 0x0c, 0xfd, 0x03, 0x06, 0xf0,
  0xf6, 0xf8, 0x2b, 0xec, 0x05, 0x15, 0x29, 0xd0, 0xe0, 0xf9, 0xfc, 0xf4,
  0x16, 0xf6, 0x1a, 0x0b, 0xe1, 0xcb, 0x1c, 0x0a, 0xfb, 0x0c, 0x2c, 0xc1,
  0x0e, 0xf9, 0xfe, 0xff, 0x1f, 0x0d, 0x22, 0x10, 0xf2, 0xd4, 0xe4, 0x07,
  0xf4, 0xfe, 0xf1, 0xd3, 0x02, 0x02, 0x05, 0xff, 0xfd, 0x16, 0x0a, 0xff,
  0xfe, 0xed, 0x02, 0xf7, 0xfe, 0xf2, 0xf4, 0xbf, 0xde, 0xfe, 0x00, 0x16,
  0xe6, 0xfe, 0x08, 0xf0, 0x09, 0xcb, 0x1f, 0xe3, 0xf8, 0xf3, 0x0f, 0xe2,
  0xf8, 0x08, 0xf6, 0x11, 0x02, 0xf9, 0xeb, 0x17, 0xf4, 0xf7, 0x0d, 0xd2,
  0x00, 0xd1, 0xf7, 0xea, 0x01, 0x05, 0xfb, 0x06, 0xfa, 0xde, 0xdf, 0xf7,
  0xe4, 0x23, 0xf6, 0x08, 0xfc, 0xbd, 0xfc, 0xee, 0xec, 0xf9, 0x02, 0xe4,
  0xf2, 0xd3, 0xeb, 0xfb, 0xfd, 0x0d, 0x10, 0x1a, 0x02, 0xef, 0x07, 0xfa,
  0x0a, 0x00, 0x05, 0xef, 0xde, 0x19, 0xea, 0xd5, 0xd5, 0x21, 0x25, 0x05,
  0xfe, 0x17, 0xf5, 0x02, 0x12, 0x04, 0xff, 0xf1, 0xd7, 0x15, 0x0b, 0xe4,
  0xe0, 0x39, 0x16, 0x0b, 0x01, 0x2a, 0x0a, 0xfd, 0xf9, 0x08, 0x0c, 0xd6,
  0xf1, 0x05, 0x08, 0xf3, 0xdb, 0x0e, 0x08, 0x15, 0x00, 0x0b, 0xde, 0xe0,
  0xcf, 0xfd, 0x09, 0xe0, 0xe8, 0x11, 0x0c, 0xf8, 0xe6, 0xd0, 0xe1, 0xed,
  0x0b, 0x1b, 0xf3, 0xcc, 0xda, 0x04, 0x06, 0xe0, 0xf6, 0xe6, 0x0d, 0xfb,
  0xe1, 0xc5, 0xec, 0xd8, 0x08, 0xfd, 0x05, 0xe9, 0xff, 0x02, 0xfb, 0x0d,
  0x1e, 0xf1, 0x05, 0xee, 0x12, 0xe3, 0x11, 0xc9, 0x04, 0x0d, 0xf9, 0x14,
  0x04, 0x02, 0x05, 0x13, 0x08, 0x12, 0x01, 0x0f, 0x18, 0xe3, 0xf7, 0xbc,
  0x04, 0x0b, 0xef, 0x11, 0xfa, 0xf6, 0x0c, 0x16, 0x01, 0xff, 0x03, 0xfa,
  0xfa, 0xeb, 0x11, 0xa9, 0xfc, 0x19, 0xef, 0xfb, 0x18, 0x06, 0x00, 0x0d,
  0x20, 0x0d, 0xfd, 0xf5, 0x03, 0xfa, 0xee, 0xb9, 0x04, 0x0e, 0xf9, 0xf9,
  0x14, 0x04, 0xf6, 0x19, 0x1b, 0x1e, 0xf5, 0xfc, 0x00, 0x03, 0x0f, 0xd6,
  0xfc, 0x17, 0xf2, 0x06, 0x26, 0xf8, 0xfa, 0x06, 0x13, 0x18, 0xed, 0x09,
  0x0f, 0x1e, 0x14, 0xda, 0x07, 0xfd, 0xed, 0x07, 0x23, 0x06, 0xfd, 0x03,
  0x17, 0xfa, 0xed, 0x00, 0xfe, 0x09, 0x17, 0xe1, 0x03, 0xfb, 0x03, 0x10,
  0xff, 0x03, 0x04, 0x0a, 0x1f, 0xf4, 0x02, 0x1c, 0x1f, 0x0c, 0x1f, 0xe6,
  0x07, 0xfc, 0xd1, 0xf3, 0xfc, 0x08, 0xfd, 0xf8, 0x11, 0x05, 0xfa, 0x09,
  0x13, 0x00, 0x0c, 0xe7, 0x06, 0xf0, 0xef, 0xf5, 0xfc, 0x0c, 0xff, 0x0c,
  0xf9, 0x05, 0xdf, 0x14, 0x01, 0x02, 0x0a, 0xdd, 0x0a, 0x06, 0xf8, 0x06,
  0xe8, 0xf9, 0x06, 0xed, 0x0c, 0xff, 0xfe, 0xf8, 0x26, 0xfb, 0xf4, 0xf1,
  0x00, 0xfe, 0xfd, 0xff, 0xd8, 0xfe, 0xf9, 0xca, 0xde, 0xf0, 0x05, 0xe3,
  0xef, 0xfd, 0xeb, 0xfe, 0x05, 0xdf, 0xd2, 0xeb, 0xcc, 0x04, 0xf7, 0xc9,
  0xc0, 0xf1, 0x06, 0xe8, 0xd3, 0x00, 0xd2, 0xed, 0xaa, 0xef, 0xff, 0xff,
  0x04, 0x00, 0x00, 0x00, 0x00, 0x09, 0x00, 0x00, 0x21, 0x13, 0xe8, 0x09,
  0xb8, 0xbc, 0x1a, 0xc4, 0xf3, 0xb2, 0x93, 0x01, 0xb7, 0xbc, 0xa3, 0x17,
  0x09, 0x08, 0xc7, 0xf1, 0x32, 0xbe, 0x2d, 0xb9, 0xfb, 0xb1, 0xca, 0xa8,
  0xe8, 0x11, 0x27, 0xc3, 0x29, 0xbe, 0x1e, 0x07, 0xbe, 0xfe, 0xe1, 0xee,
  0x25, 0x36, 0xb4, 0x29, 0xf2, 0x33, 0x22, 0x2a, 0xa3, 0xc7, 0xbc, 0x37,
  0x29, 0x0b, 0x19, 0x29, 0xd9, 0x1c, 0xfa, 0xdf, 0x19, 0x07, 0x02, 0x00,
  0x81, 0xce, 0x22, 0x18, 0x12, 0xcc, 0xe5, 0xd3, 0x00, 0xba, 0xe8, 0x2c,
  0xb4, 0xfc, 0xfa, 0xf1, 0x8b, 0xaf, 0x3f, 0x31, 0xb5, 0xbc, 0xac, 0xdf,
  0x92, 0x17, 0xb3, 0x0c, 0xd3, 0xb1, 0xa9, 0x95, 0xa4, 0xdb, 0xf9, 0xa6,
  0x93, 0xc2, 0xbf, 0xaf, 0x05, 0xb8, 0x09, 0x2a, 0xe5, 0x0e, 0xe5, 0xe8,
  0xd3, 0xce, 0xb5, 0x01, 0xf9, 0xd6, 0xaa, 0xce, 0x9f, 0xb9, 0xde, 0x11,
  0xdb, 0x26, 0x9b, 0xf9, 0xaa, 0xd0, 0x29, 0xd8, 0x27, 0xb3, 0x40, 0xd5,
  0xd3, 0x08, 0x0e, 0x3e, 0xcc, 0xdf, 0x22, 0xe5, 0x02, 0x0b, 0x0c, 0x2c,
  0xe8, 0xb9, 0xe8, 0xfc, 0xf0, 0xf4, 0x2e, 0x0f, 0x19, 0x17, 0xf2, 0xe4,
  0x11, 0x21, 0x37, 0xc9, 0x19, 0x37, 0xe8, 0x15, 0xeb, 0x05, 0x21, 0xf1,
  0xf0, 0xe0, 0x02, 0xe2, 0xf7, 0x1d, 0x46, 0x0c, 0x06, 0xc4, 0x23, 0xce,
  0xb5, 0x50, 0xff, 0x81, 0xde, 0x23, 0xbf, 0x18, 0xfa, 0xfe, 0xfa, 0x1c,
  0xed, 0xd3, 0x18, 0xed, 0x0f, 0x04, 0xde, 0xc1, 0x0e, 0x0d, 0xed, 0x09,
  0x25, 0x0c, 0x08, 0xf5, 0xf6, 0x4b, 0xe8, 0x26, 0x06, 0x00, 0x24, 0xf1,
  0xeb, 0x1d, 0x16, 0xc1, 0xf3, 0x0d, 0x0e, 0xe1, 0xf7, 0xde, 0x03, 0x11,
  0xe7, 0x13, 0x0a, 0xa0, 0xcd, 0xf6, 0x11, 0x20, 0xf2, 0xce, 0xda, 0x1e,
  0xe2, 0xe6, 0x2e, 0x04, 0x19, 0x12, 0xba, 0xa6, 0x01, 0xfd, 0x06, 0x2a,
  0x27, 0xe4, 0xba, 0xe4, 0xef, 0x33, 0xd9, 0x17, 0x0a, 0xf6, 0xfa, 0xf0,
  0xed, 0x10, 0x1b, 0xdc, 0x16, 0xe7, 0xec, 0xe2, 0xe7, 0x1d, 0xec, 0xbc,
  0xfc, 0xdd, 0x1f, 0xf2, 0xaf, 0xe8, 0x1c, 0xfa, 0xdc, 0xf3, 0x0b, 0xf8,
  0xca, 0xb6, 0xd1, 0x15, 0xbf, 0xce, 0x1b, 0x10, 0xfe, 0x1f, 0xfe, 0xa4,
  0xdc, 0x12, 0x17, 0xbe, 0x89, 0xe6, 0xf0, 0xf8, 0xd2, 0x07, 0x06, 0xa1,
  0xdb, 0xb1, 0xe0, 0xfc, 0xb8, 0xcb, 0xee, 0x17, 0xed, 0x9f, 0x30, 0x1d,
  0xcf, 0x2d, 0xc9, 0xf2, 0xf7, 0xf1, 0xea, 0xea, 0xbc, 0xc3, 0x0a, 0xda,
  0xc8, 0xcb, 0xe8, 0x13, 0xb0, 0xf7, 0xf8, 0x07, 0xee, 0x14, 0xf5, 0xa8,
  0xe7, 0x1f, 0x30, 0xbe, 0xc1, 0xf6, 0xe2, 0xbb, 0xc9, 0x04, 0x2f, 0xb7,
  0xc3, 0xae, 0xe5, 0x0a, 0xb8, 0xbc, 0xfa, 0x49, 0x07, 0xbe, 0x59, 0x2b,
  0xbc, 0x51, 0xbc, 0x13, 0x03, 0xe0, 0xa4, 0xf2, 0x06, 0xe4, 0xc8, 0x16,
  0xd5, 0xde, 0xe7, 0xcd, 0x0c, 0x07, 0xed, 0x1f, 0x92, 0x09, 0xe0, 0xe6,
  0xfa, 0x26, 0x62, 0xa0, 0xb9, 0x18, 0xe8, 0xe6, 0xd5, 0x99, 0x20, 0xd3,
  0xd7, 0xbf, 0xd8, 0xfc, 0xb4, 0xce, 0x1f, 0x1c, 0xb8, 0xf7, 0x4c, 0x41,
  0x23, 0x7f, 0xed, 0x17, 0xe0, 0x16, 0xf5, 0x09, 0x05, 0xbb, 0xf4, 0x02,
  0x01, 0xdc, 0x26, 0x0a, 0xbb, 0x21, 0x04, 0xfd, 0xf8, 0x17, 0x06, 0xfd,
  0x24, 0x30, 0x07, 0xa7, 0xc9, 0x22, 0xcc, 0xfc, 0xd2, 0xf1, 0x22, 0x20,
  0xcc, 0x04, 0x02, 0x06, 0xab, 0x1b, 0xfc, 0x2a, 0x10, 0xcf, 0x16, 0xec,
  0xd7, 0x11, 0xea, 0xe1, 0x0c, 0xff, 0xed, 0x35, 0xf0, 0xd7, 0xef, 0xfb,
  0x11, 0xd2, 0x16, 0xfc, 0xd7, 0x0f, 0xfe, 0x04, 0xfe, 0x05, 0xf9, 0x05,
  0x03, 0x0b, 0x02, 0xf8, 0x05, 0xfc, 0xf6, 0x02, 0xcf, 0x1e, 0x15, 0x11,
  0x04, 0xfa, 0xeb, 0xfb, 0xee, 0x15, 0x12, 0xf8, 0x05, 0xd6, 0xf8, 0xee,
  0xd7, 0x13, 0xf3, 0xfb, 0x00, 0x09, 0x0e, 0x1e, 0xeb, 0x0c, 0x13, 0xff,
  0x03, 0xe2, 0x08, 0xe8, 0xf0, 0x00, 0x1b, 0x0b, 0x1d, 0xf1, 0xeb, 0xff,
  0xf4, 0xf1, 0xfb, 0x42, 0x44, 0x04, 0x3b, 0xe6, 0x81, 0x2e, 0xdf, 0xf8,
  0x3a, 0xe6, 0xc2, 0x16, 0x15, 0x03, 0x18, 0xeb, 0xfe, 0xdf, 0xe4, 0xcc,
  0xd7, 0x06, 0x06, 0xf1, 0xe9, 0x27, 0x12, 0xe7, 0xbc, 0xfc, 0xfd, 0x08,
  0x13, 0xf2, 0x18, 0xde, 0x81, 0xeb, 0xd6, 0xee, 0x14, 0xb0, 0xb1, 0x24,
  0xce, 0xf1, 0x35, 0x55, 0x3d, 0xf3, 0x5a, 0x5c, 0x02, 0x35, 0xe0, 0x15,
  0x1b, 0x39, 0x15, 0x0d, 0x99, 0xf4, 0x4d, 0xe0, 0x12, 0xc2, 0xfd, 0xb5,
  0xcc, 0x24, 0xfd, 0xdc, 0xec, 0x08, 0xe9, 0x19, 0xba, 0xe7, 0xfa, 0x09,
  0x1a, 0xbe, 0x1e, 0x04, 0xab, 0x04, 0xf3, 0x0d, 0x0c, 0xf4, 0xff, 0xf0,
  0xcc, 0x06, 0x05, 0xfc, 0xde, 0x08, 0x1e, 0x2c, 0x16, 0x26, 0xe7, 0x36,
  0x05, 0x2d, 0x16, 0x13, 0xd3, 0xfa, 0xe2, 0xdc, 0xf1, 0x0c, 0x03, 0xa8,
  0x0e, 0xdf, 0x27, 0xfd, 0xb7, 0xcb, 0x0d, 0xf4, 0xe1, 0xe7, 0xfb, 0xf9,
  0x17, 0xd9, 0x12, 0x30, 0xf4, 0x15, 0x11, 0x1d, 0xf5, 0x27, 0x29, 0xdd,
  0xd4, 0x03, 0x07, 0xb0, 0x89, 0x0f, 0xdb, 0xf8, 0x26, 0xe1, 0xfc, 0x3b,
  0xd6, 0x03, 0x06, 0x2f, 0x52, 0x21, 0xc6, 0xee, 0x00, 0x48, 0x02, 0x44,
  0xe6, 0xde, 0x22, 0x39, 0xc0, 0x21, 0x55, 0xe6, 0x20, 0xe6, 0xea, 0x3b,
  0x99, 0x82, 0xc6, 0x10, 0x1d, 0xa3, 0x4b, 0xdd, 0xa1, 0xb8, 0xe0, 0xa2,
  0x2f, 0xce, 0x0a, 0x0d, 0x14, 0x23, 0x3f, 0xbf, 0xb4, 0x10, 0x05, 0x16,
  0x20, 0xdd, 0x9c, 0x0b, 0xd4, 0x13, 0xf6, 0x25, 0xe7, 0x8c, 0xe1, 0xdf,
  0x12, 0xba, 0x16, 0xcb, 0x9d, 0x4a, 0x91, 0xbc, 0x0d, 0x1b, 0x4a, 0x2c,
  0xe5, 0x92, 0x29, 0x12, 0x86, 0xea, 0xcb, 0x8e, 0xe1, 0xb9, 0x0e, 0xf9,
  0x92, 0x14, 0xc0, 0xdb, 0xc2, 0x9b, 0x30, 0x91, 0x81, 0xba, 0x07, 0xfc,
  0x99, 0x93, 0xaa, 0xa7, 0x34, 0x89, 0x99, 0x11, 0x9f, 0xde, 0xb1, 0x92,
  0x9f, 0x22, 0xa3, 0x88, 0x97, 0x88, 0xd8, 0x8c, 0xf6, 0x17, 0xd6, 0xe7,
  0xaa, 0xaf, 0xd6, 0xf7, 0xf8, 0x86, 0xe4, 0xbc, 0x3f, 0xd7, 0x9a, 0x3e,
  0x95, 0x8c, 0xf5, 0x90, 0x43, 0xbc, 0x3c, 0x45, 0xfd, 0x8b, 0xd0, 0x08,
  0xe6, 0x37, 0xf5, 0x3a, 0x02, 0xf7, 0xcf, 0x95, 0x4f, 0xaf, 0x09, 0xfc,
  0x84, 0x40, 0xe1, 0xa6, 0xbd, 0x19, 0xb9, 0x27, 0xa0, 0xf8, 0xc4, 0xe7,
  0xaa, 0xae, 0xdf, 0xab, 0xed, 0xe5, 0xc1, 0xf8, 0xa1, 0xfa, 0x22, 0xac,
  0xad, 0x0f, 0xad, 0x21, 0x1d, 0x81, 0x16, 0xc0, 0xed, 0xd7, 0x31, 0x31,
  0xff, 0xea, 0xd4, 0xdd, 0x02, 0x39, 0x02, 0x05, 0x10, 0xe3, 0xe4, 0x0a,
  0xd6, 0xbf, 0x92, 0x31, 0x10, 0xb1, 0x06, 0xb3, 0xd0, 0xe1, 0xa9, 0xfa,
  0x08, 0xd7, 0x17, 0x1a, 0x06, 0xd0, 0xea, 0xb5, 0x04, 0x25, 0xce, 0xe7,
  0xf4, 0xd0, 0xb6, 0xf7, 0x0c, 0xd4, 0xaa, 0xce, 0xf8, 0xe8, 0x33, 0x29,
  0xea, 0xd2, 0xc6, 0xbc, 0xfa, 0xba, 0xed, 0xde, 0xcf, 0xab, 0xb7, 0xb0,
  0x02, 0x0b, 0xe3, 0x08, 0xd2, 0x04, 0xaf, 0xff, 0xe0, 0xd5, 0x2b, 0xed,
  0xd9, 0x26, 0xb9, 0xfb, 0xb7, 0xcf, 0x0e, 0x31, 0x1a, 0xac, 0xd3, 0xd9,
  0x56, 0xf9, 0xf1, 0xbc, 0xb5, 0xe1, 0x0c, 0xd0, 0xf3, 0xf2, 0xf9, 0x17,
  0x12, 0xfb, 0x18, 0xdf, 0x43, 0x15, 0x20, 0xca, 0xf4, 0x01, 0x18, 0x1d,
  0xea, 0xab, 0x4a, 0xcb, 0x22, 0xa9, 0xbc, 0x3c, 0x0f, 0x11, 0xbb, 0xfc,
  0xe2, 0x25, 0xe4, 0xbe, 0x2f, 0xc8, 0x2a, 0x06, 0xd8, 0xce, 0xc9, 0x28,
  0xbc, 0xe2, 0x4c, 0x15, 0xcc, 0x0b, 0xd3, 0x46, 0x2e, 0xd0, 0x0a, 0x22,
  0x05, 0x00, 0x19, 0x15, 0xdf, 0xd9, 0xdc, 0x7f, 0xe6, 0x38, 0xda, 0x40,
  0x60, 0xf7, 0x05, 0xea, 0x15, 0xfa, 0x11, 0xec, 0x00, 0xf5, 0xf9, 0xe0,
  0x11, 0xbf, 0x07, 0x01, 0xc8, 0xfb, 0x05, 0x13, 0x00, 0xe9, 0xef, 0xee,
  0x00, 0x0e, 0xd8, 0xae, 0xe7, 0xfb, 0xdd, 0x39, 0x29, 0xe7, 0x05, 0x2f,
  0xda, 0x13, 0x1d, 0xe5, 0x01, 0x14, 0xd5, 0xda, 0xf4, 0xd2, 0xca, 0x33,
  0x56, 0x08, 0x18, 0x1e, 0xdf, 0x33, 0x24, 0xfd, 0xc6, 0xf1, 0x39, 0x1a,
  0x30, 0xde, 0x13, 0x0f, 0xc8, 0x19, 0xf9, 0x0b, 0x1a, 0x1e, 0x14, 0xc2,
  0xf6, 0x00, 0xa5, 0xe9, 0x16, 0xed, 0x13, 0xec, 0x00, 0xfe, 0x02, 0x17,
  0xf8, 0x1c, 0x10, 0xe0, 0xfe, 0x1c, 0xd8, 0xce, 0x20, 0xae, 0xfc, 0xe2,
  0xb4, 0xea, 0x1b, 0x1d, 0x0c, 0xc8, 0xe9, 0x05, 0xe1, 0x03, 0x16, 0xfe,
  0x18, 0xf5, 0xf4, 0x56, 0xf6, 0xff, 0x1b, 0x4b, 0xe5, 0x3c, 0x56, 0xb2,
  0xee, 0x25, 0xff, 0x1e, 0x21, 0xfd, 0xf5, 0xc7, 0x81, 0xec, 0x37, 0xd3,
  0xff, 0xd1, 0xd5, 0x1b, 0x39, 0xdd, 0x1d, 0xd4, 0xdb, 0xfd, 0xf3, 0x1b,
  0x58, 0x0e, 0xf5, 0xf5, 0xeb, 0x29, 0x49, 0xa3, 0xe0, 0x1c, 0x15, 0x15,
  0xc1, 0xbd, 0xfe, 0x05, 0xfc, 0x14, 0xfd, 0xc7, 0xe7, 0x1d, 0x1c, 0xda,
  0xe4, 0x00, 0xf5, 0x25, 0x27, 0xe5, 0x1c, 0x0a, 0x94, 0x1c, 0xdb, 0xb8,
  0x0e, 0x16, 0xd5, 0x12, 0x3d, 0xf7, 0x2e, 0xbd, 0xdc, 0xfe, 0xa2, 0xe6,
  0x29, 0xf1, 0xf8, 0xeb, 0xf3, 0x06, 0x1e, 0xc3, 0xb0, 0xf3, 0x02, 0x1a,
  0xb8, 0xe6, 0x0a, 0xa6, 0x21, 0x1d, 0xb1, 0xbe, 0x07, 0xb8, 0xcb, 0x24,
  0x08, 0xc4, 0x00, 0x29, 0x3b, 0xe1, 0x33, 0x38, 0xed, 0x2c, 0xb3, 0xc7,
  0x27, 0x37, 0x1b, 0xec, 0x19, 0x24, 0x38, 0xe7, 0xd9, 0x24, 0x9c, 0xc4,
  0x0a, 0xbe, 0x04, 0x02, 0x0c, 0xc1, 0x05, 0x1d, 0x03, 0x42, 0x26, 0x1b,
  0xf4, 0xc6, 0xfe, 0xfc, 0xdb, 0xf1, 0x3d, 0xec, 0xc2, 0xdd, 0xfc, 0x15,
  0xe9, 0x04, 0x71, 0xdd, 0xc4, 0x81, 0x9e, 0x54, 0xe8, 0xa6, 0x09, 0xf9,
  0x14, 0xe4, 0x33, 0xf2, 0x08, 0xe7, 0xc5, 0x4a, 0x13, 0x0a, 0xc5, 0xe2,
  0xc6, 0xf5, 0x2b, 0x1f, 0x2a, 0x2c, 0xfe, 0x0f, 0xc9, 0x4e, 0x35, 0xf1,
  0xf5, 0xcb, 0xee, 0xed, 0xf8, 0xe4, 0x54, 0xf2, 0xd3, 0xad, 0xf7, 0x0a,
  0xdb, 0x0f, 0x6d, 0xdc, 0x8a, 0x93, 0x8a, 0x29, 0xfc, 0xa7, 0x04, 0xd8,
  0xfa, 0xc4, 0x4b, 0xd0, 0x0b, 0xd7, 0xdb, 0x2c, 0x1f, 0x20, 0xc1, 0xe2,
  0xf6, 0xeb, 0x2b, 0x0b, 0x33, 0xe4, 0x02, 0x11, 0x01, 0x3a, 0x77, 0x09,
  0x24, 0xcf, 0xd8, 0xe2, 0xfd, 0xcb, 0x30, 0x12, 0xfb, 0xa1, 0xd2, 0xec,
  0xf9, 0x0d, 0x36, 0x3a, 0xac, 0xa9, 0xec, 0x35, 0x06, 0x9b, 0x25, 0xcf,
  0xf6, 0xf7, 0x52, 0xee, 0xf7, 0xd4, 0xf4, 0x10, 0x23, 0x1e, 0xc1, 0x0d,
  0xda, 0xd0, 0x3d, 0x26, 0x1a, 0xf2, 0x1d, 0x0b, 0xfd, 0x10, 0x1e, 0x3e,
  0xdd, 0xe5, 0x09, 0xf4, 0xfa, 0xf6, 0xd7, 0xc0, 0x1b, 0x0f, 0xf1, 0xfd,
  0x0e, 0xf6, 0x05, 0xe9, 0x1f, 0xfe, 0xf3, 0xf1, 0xb8, 0xfa, 0x03, 0xe8,
  0xfc, 0xcc, 0xf3, 0xd7, 0xc3, 0x02, 0x2d, 0x09, 0x17, 0xe1, 0x34, 0xf0,
  0x94, 0x2b, 0xa4, 0xab, 0x06, 0x0c, 0xb6, 0x3b, 0xfe, 0xf2, 0x08, 0x0d,
  0xd8, 0xe7, 0x18, 0xfc, 0xf9, 0x0a, 0xc8, 0xd2, 0xf6, 0xff, 0xf7, 0x06,
  0xf8, 0xfa, 0x12, 0x39, 0x03, 0x13, 0x25, 0x47, 0x12, 0xfe, 0x00, 0xfb,
  0xfe, 0xda, 0x0f, 0xe5, 0xc7, 0xf5, 0x31, 0x1d, 0x03, 0xcd, 0x3e, 0x47,
  0x28, 0x22, 0xbd, 0x9e, 0x05, 0x04, 0xe3, 0x24, 0x67, 0xe3, 0xeb, 0xe8,
  0x1f, 0x27, 0x04, 0xf5, 0x0d, 0x0c, 0xb1, 0xe3, 0xe4, 0xe9, 0x0d, 0x12,
  0xea, 0x1a, 0xfd, 0x20, 0xd1, 0xf1, 0xf5, 0xea, 0x09, 0xed, 0x11, 0xf8,
  0xe9, 0xd6, 0xd0, 0xee, 0x22, 0xf2, 0xff, 0x0e, 0xf8, 0x4f, 0x2d, 0x7f,
  0x2d, 0x0c, 0xc8, 0xd0, 0xee, 0x1b, 0x3e, 0x08, 0xd9, 0xef, 0x06, 0x16,
  0xec, 0xbe, 0x09, 0x1b, 0xe1, 0xf8, 0x06, 0xe9, 0x02, 0x13, 0x14, 0xff,
  0x14, 0xee, 0xc2, 0x81, 0xae, 0xcf, 0xce, 0x09, 0x5b, 0x13, 0x15, 0x19,
  0x8d, 0x46, 0x3e, 0xd6, 0x34, 0x24, 0xc0, 0xe4, 0xe5, 0xf7, 0xf3, 0xed,
  0x4a, 0xe9, 0x1b, 0x1b, 0xe1, 0x98, 0x04, 0x12, 0xfc, 0xee, 0xfc, 0xef,
  0xf0, 0xeb, 0xfc, 0x0f, 0xd9, 0xf4, 0x17, 0xf4, 0x02, 0x00, 0x10, 0xf2,
  0x30, 0x05, 0xe1, 0xd4, 0x9e, 0xe0, 0xdd, 0xe4, 0x11, 0xf1, 0x2b, 0xee,
  0xb4, 0x04, 0x1a, 0x23, 0xf9, 0x12, 0x01, 0x1e, 0x3d, 0xc0, 0x1c, 0x25,
  0xe8, 0x12, 0xfa, 0xfd, 0x24, 0xc1, 0xe7, 0x0a, 0x2e, 0x0d, 0x25, 0xee,
  0x0f, 0xf4, 0xd8, 0xff, 0x9f, 0xde, 0x28, 0x03, 0x13, 0x04, 0x15, 0xe2,
  0xf0, 0x08, 0x10, 0x20, 0x1e, 0xa1, 0x06, 0xca, 0xab, 0xca, 0x0d, 0xd3,
  0xf2, 0xc1, 0xdb, 0x5a, 0xd5, 0xfd, 0x45, 0x4e, 0x2e, 0x92, 0x33, 0x04,
  0xb0, 0x2d, 0xb8, 0xdf, 0x29, 0x0f, 0xe0, 0xea, 0xf3, 0x1b, 0xfc, 0xf0,
  0x03, 0x11, 0xff, 0x09, 0x05, 0x0d, 0x16, 0x02, 0xe1, 0x25, 0x20, 0x0a,
  0xe2, 0x13, 0x4b, 0x13, 0xfc, 0xf8, 0xf7, 0x04, 0xcb, 0xe6, 0xec, 0xa2,
  0xf9, 0xf0, 0xf1, 0xfe, 0xe6, 0xf5, 0x05, 0x22, 0xc6, 0xd7, 0x0d, 0xdc,
  0x46, 0xf3, 0xf9, 0xee, 0xe5, 0x05, 0x0c, 0xf4, 0xfe, 0x26, 0x0f, 0xed,
  0xf0, 0xc3, 0xe3, 0xf7, 0x05, 0xfe, 0x26, 0x1c, 0xfa, 0xdc, 0x0b, 0xdd,
  0xff, 0xea, 0x14, 0x18, 0x26, 0xe0, 0x2d, 0x1c, 0xf1, 0x05, 0xdb, 0xb1,
  0xf6, 0x2c, 0x13, 0xf2, 0xfe, 0xff, 0x0c, 0xa5, 0xb4, 0xd6, 0xe7, 0xc6,
  0x2a, 0xdb, 0x11, 0x00, 0xc5, 0xe7, 0x23, 0x05, 0xce, 0x06, 0x11, 0x0e,
  0x01, 0xc1, 0x15, 0x01, 0x0c, 0x0c, 0xe2, 0xf4, 0x23, 0xd6, 0xca, 0x12,
  0x04, 0xf0, 0xeb, 0x2b, 0x17, 0xfd, 0x26, 0x1a, 0x1b, 0x11, 0xf0, 0xe1,
  0xf9, 0x29, 0x0c, 0xe1, 0x21, 0x00, 0xe6, 0x81, 0xd1, 0x08, 0xe1, 0xe0,
  0x17, 0xcb, 0x2e, 0x17, 0xc0, 0xd2, 0x0e, 0x02, 0x0c, 0xde, 0x10, 0xef,
  0x24, 0xfe, 0x10, 0x0d, 0x04, 0x1e, 0xe9, 0x12, 0x0f, 0xfe, 0xd7, 0x2a,
  0xd7, 0x2e, 0xcb, 0x09, 0x16, 0xdd, 0x0c, 0xbd, 0x85, 0x24, 0xf1, 0xe6,
  0x0a, 0xec, 0xc6, 0xde, 0xcc, 0x33, 0x1a, 0xb8, 0xfe, 0xca, 0xe5, 0x3b,
  0x81, 0xdf, 0xea, 0xff, 0xe7, 0x04, 0x28, 0x1b, 0xce, 0xcc, 0x2a, 0xf2,
  0x30, 0xe5, 0x1d, 0x02, 0xf4, 0x07, 0xdf, 0xfb, 0x04, 0xba, 0xe9, 0x17,
  0xba, 0xf3, 0xfc, 0x3f, 0x27, 0xd6, 0x30, 0xe8, 0xe9, 0x2d, 0xcd, 0xf0,
  0x11, 0xf2, 0x00, 0xfe, 0xd5, 0x2b, 0xff, 0xd3, 0xe9, 0xcc, 0xf6, 0x1b,
  0x9f, 0xde, 0x06, 0xf5, 0xf4, 0xff, 0x22, 0x29, 0xc9, 0xdd, 0x21, 0xce,
  0x14, 0xd5, 0xf1, 0xfd, 0x11, 0xfe, 0x1e, 0xe9, 0x07, 0xe9, 0x03, 0xee,
  0xcd, 0xff, 0x3b, 0x30, 0xf0, 0xf5, 0x41, 0x0a, 0x16, 0x51, 0x0b, 0xff,
  0xf8, 0x02, 0x22, 0x26, 0xfc, 0x1f, 0x15, 0xfe, 0xd4, 0x12, 0xf4, 0xef,
  0xd0, 0x0b, 0x1c, 0xfe, 0xe3, 0x05, 0xf7, 0x20, 0xe6, 0x13, 0xe5, 0xd1,
  0x08, 0xfd, 0x09, 0xf7, 0xf5, 0xfc, 0xe7, 0xf5, 0xe6, 0xd3, 0xf4, 0x17,
  0xce, 0xf3, 0x0c, 0xe4, 0xed, 0xdf, 0xe3, 0x27, 0x30, 0x14, 0xed, 0x0e,
  0x00, 0x02, 0x0a, 0xec, 0xe9, 0xf9, 0xf3, 0x05, 0xf0, 0x0c, 0xe7, 0xc3,
  0xa2, 0xe6, 0x1f, 0x57, 0x0f, 0xe7, 0xd0, 0xfe, 0x0b, 0xd4, 0x00, 0xc5,
  0x2b, 0x15, 0xf1, 0x08, 0xbe, 0xfd, 0x00, 0x0b, 0xfd, 0xf7, 0x00, 0x06,
  0xe7, 0x1a, 0x3d, 0xa9, 0x81, 0x02, 0xc4, 0x00, 0x2e, 0x0b, 0x1d, 0xeb,
  0xd7, 0x0a, 0x16, 0x02, 0xa1, 0x17, 0xf3, 0x24, 0x13, 0xa2, 0x09, 0xea,
  0xdb, 0x0d, 0x2c, 0x10, 0x2a, 0xdb, 0xb8, 0x21, 0x0c, 0xdb, 0x2c, 0x02,
  0x3c, 0xd0, 0xfa, 0x1a, 0xaa, 0xf3, 0x13, 0x25, 0x24, 0x22, 0x07, 0xd7,
  0x0d, 0x19, 0x22, 0x85, 0x1a, 0xf7, 0xef, 0xd3, 0xcd, 0x09, 0x0c, 0xc7,
  0xd1, 0xe7, 0xea, 0xea, 0xba, 0x02, 0x28, 0x05, 0xef, 0xf7, 0x16, 0xef,
  0xe9, 0x2e, 0xf9, 0xf1, 0x09, 0x04, 0xc6, 0x11, 0x0b, 0x10, 0xd5, 0x30,
  0xfc, 0x22, 0x04, 0xe1, 0xe7, 0x08, 0xc4, 0xd5, 0x16, 0xc5, 0x9b, 0x30,
  0x34, 0x07, 0x4a, 0x43, 0x1d, 0xed, 0x46, 0x13, 0xd8, 0x12, 0xf5, 0xff,
  0x20, 0x14, 0xdd, 0x9c, 0xa3, 0xdc, 0x1f, 0x1b, 0x1e, 0x2d, 0x1c, 0xda,
  0x64, 0x00, 0xf9, 0x00, 0xe9, 0xc5, 0xe9, 0xd7, 0xf3, 0x14, 0x1d, 0x0a,
  0x06, 0xd7, 0xe6, 0x09, 0xb2, 0xc4, 0xcf, 0x9c, 0x09, 0xe8, 0x04, 0xe5,
  0xd9, 0xd0, 0x2d, 0x63, 0xec, 0xd2, 0x3b, 0x02, 0xf0, 0x56, 0xac, 0xd8,
  0xfb, 0x28, 0xf8, 0xdb, 0x1d, 0xef, 0xf4, 0xc2, 0xbb, 0x55, 0xab, 0x03,
  0x4b, 0x95, 0x1f, 0xfa, 0xa1, 0xe7, 0x34, 0xba, 0xf5, 0xdf, 0x26, 0xea,
  0xf0, 0xf0, 0xdc, 0x23, 0xbb, 0x18, 0x0f, 0xe9, 0xd8, 0x4f, 0x21, 0xae,
  0xbf, 0x2e, 0x0e, 0xca, 0x81, 0xf4, 0xfc, 0xf4, 0x44, 0x46, 0xf2, 0xcd,
  0xc9, 0x11, 0xf4, 0x49, 0x37, 0x24, 0xc4, 0x22, 0xd1, 0xfc, 0x04, 0xd3,
  0xc9, 0xdb, 0x17, 0x05, 0x01, 0xee, 0xfb, 0x3d, 0xb6, 0xf8, 0xff, 0xff,
  0x04, 0x00, 0x00, 0x00, 0x40, 0x00, 0x00, 0x00, 0xf6, 0x5c, 0xa2, 0xbd,
  0x9b, 0xa8, 0x66, 0xbe, 0x94, 0xd1, 0x0d, 0xbf, 0x97, 0xf9, 0xbe, 0xbe,
  0x87, 0x3a, 0x9e, 0xbe, 0xae, 0xf6, 0xf5, 0xbc, 0x00, 0x72, 0x90, 0xbd,
  0xd7, 0x24, 0xd0, 0xbe, 0x5c, 0x2f, 0x7d, 0xbe, 0x0c, 0x2e, 0x63, 0xbc,
  0xa7, 0x44, 0xbd, 0xbe, 0xe9, 0x62, 0x84, 0xbc, 0xf8, 0xa3, 0xe4, 0xbe,
  0x40, 0xa4, 0x98, 0xbe, 0xb1, 0x46, 0x65, 0xbe, 0x13, 0xec, 0xb3, 0xbe,
  0x02, 0xf9, 0xff, 0xff, 0x04, 0x00, 0x00, 0x00, 0x40, 0x02, 0x00, 0x00,
  0xc9, 0x34, 0x71, 0xbd, 0xc9, 0x2c, 0xed, 0xbc, 0x98, 0xcf, 0x89, 0xbd,
  0x5c, 0x78, 0x58, 0x3b, 0x13, 0x8d, 0x6f, 0xbd, 0x2a, 0x7d, 0x87, 0xbd,
  0xf0, 0xf4, 0x92, 0x3d, 0xf1, 0x5b, 0x43, 0x3d, 0xe1, 0xe5, 0xeb, 0x3c,
  0x39, 0xc6, 0x21, 0xbd, 0x7a, 0xf2, 0xe9, 0xbc, 0x12, 0x42, 0x47, 0x3d,
  0x8f, 0xc3, 0xd2, 0x3c, 0x69, 0xed, 0x86, 0xbd, 0x36, 0x6b, 0x1e, 0x3d,
  0xfe, 0x43, 0xe4, 0x3b, 0x40, 0x55, 0x26, 0xbc, 0xa7, 0x27, 0xa2, 0x3d,
  0x6d, 0x9b, 0xa8, 0x3c, 0xe5, 0x67, 0x8d, 0x3c, 0xe6, 0x5c, 0x84, 0x3d,
  0x98, 0xc8, 0xf7, 0x3b, 0x87, 0x47, 0xd2, 0xbc, 0xf2, 0xc6, 0x3b, 0x3d,
  0x61, 0xd4, 0xef, 0x3c, 0x8f, 0x6d, 0x84, 0xbd, 0x26, 0xc6, 0xbe, 0x3c,
  0x96, 0x88, 0x89, 0x3d, 0x93, 0x75, 0xab, 0x3c, 0xfc, 0x64, 0x31, 0x3d,
  0x06, 0xfc, 0x23, 0x3b, 0xb2, 0xcb, 0x21, 0x3d, 0x9c, 0x06, 0xd7, 0x3c,
  0x1e, 0x2b, 0x3d, 0xbd, 0x7e, 0xfc, 0x1f, 0x3d, 0xd9, 0xf5, 0x17, 0x3b,
  0x99, 0xa5, 0x5f, 0xbd, 0x20, 0x5a, 0x9c, 0x3b, 0x7e, 0xa3, 0x05, 0xbc,
  0x56, 0xa4, 0x89, 0xba, 0x1c, 0xb7, 0x4c, 0x3d, 0x61, 0x76, 0xf4, 0x3c,
  0xc5, 0x49, 0x9a, 0x3d, 0x4c, 0x0f, 0x83, 0x3d, 0x05, 0xda, 0x11, 0xbd,
  0x00, 0xb4, 0x6d, 0xbd, 0xbe, 0x87, 0xfa, 0x3c, 0x66, 0x46, 0x71, 0x3c,
  0x68, 0x62, 0x7b, 0xbd, 0x0d, 0x44, 0xa5, 0xbc, 0x4e, 0x93, 0x61, 0xbd,
  0xee, 0xaa, 0x78, 0x3d, 0xb4, 0xd2, 0x73, 0xbd, 0x5b, 0x9f, 0x91, 0xbd,
  0x3e, 0xb2, 0x50, 0x3a, 0x78, 0x79, 0x0e, 0x3d, 0xa6, 0x24, 0xff, 0x3c,
  0x2d, 0x20, 0xa4, 0x39, 0x32, 0x15, 0x34, 0x3d, 0x52, 0xc0, 0x1d, 0x3c,
  0xcc, 0x08, 0xae, 0xbc, 0x39, 0x87, 0x28, 0x3d, 0x74, 0xac, 0x12, 0xbc,
  0x60, 0x31, 0xa6, 0x3c, 0xcd, 0x29, 0x04, 0x3d, 0xfa, 0x85, 0x2a, 0x3d,
  0xe9, 0xc8, 0x0d, 0x3d, 0x6e, 0x4c, 0xe7, 0x3a, 0x18, 0x4e, 0xff, 0xbc,
  0x00, 0xcf, 0x4f, 0x3c, 0x4e, 0x15, 0x86, 0xbd, 0xd6, 0x76, 0x92, 0xbd,
  0x7e, 0x34, 0xb9, 0x3d, 0xb0, 0xda, 0x7b, 0x3d, 0xcd, 0xd4, 0x83, 0x3d,
  0xd4, 0x23, 0x76, 0xbc, 0x05, 0xad, 0x91, 0xbc, 0x20, 0x34, 0xe2, 0x38,
  0xac, 0xcf, 0xaa, 0xbd, 0x0b, 0xa4, 0x8a, 0xbd, 0xb8, 0x25, 0xcb, 0xbd,
  0x89, 0x38, 0x32, 0x3c, 0xca, 0x30, 0x4d, 0x3d, 0xf3, 0xe3, 0x5d, 0xbd,
  0x14, 0x1d, 0x1b, 0xbb, 0x28, 0x49, 0x08, 0x3d, 0xaa, 0xe2, 0x22, 0xbd,
  0xfc, 0x54, 0xcd, 0xbc, 0xb0, 0xda, 0x9c, 0x39, 0x1c, 0x31, 0xaa, 0xbc,
  0x76, 0x65, 0xf6, 0x3c, 0xd6, 0x23, 0x14, 0xbd, 0x87, 0x35, 0x9d, 0xba,
  0x74, 0x84, 0xd9, 0xbc, 0x58, 0x7d, 0xd9, 0xbd, 0x7f, 0xf6, 0xf9, 0x3c,
  0xca, 0x9a, 0xc3, 0xbc, 0xbf, 0xb2, 0x8e, 0xbd, 0xf7, 0x6e, 0xfb, 0x3c,
  0xcb, 0xb8, 0xdf, 0x3c, 0x70, 0x22, 0x28, 0xbd, 0x05, 0xc4, 0x50, 0xbd,
  0xd7, 0xe9, 0xd8, 0x3b, 0xb6, 0xb1, 0xa0, 0xbd, 0x96, 0xa4, 0x5c, 0xbd,
  0xab, 0xa8, 0x6e, 0xbd, 0x08, 0x75, 0x91, 0xbd, 0xf3, 0xbe, 0xb3, 0xbb,
  0x7b, 0x62, 0x2f, 0x3c, 0x3b, 0x8e, 0xa3, 0xbc, 0xe0, 0x36, 0x52, 0x3b,
  0x68, 0x07, 0x50, 0x3b, 0x1e, 0xa9, 0xd9, 0x3b, 0x69, 0x23, 0x27, 0x3d,
  0x08, 0x77, 0xe4, 0x3c, 0xa0, 0x3b, 0x13, 0x3d, 0x6c, 0xe0, 0x21, 0x3d,
  0x2c, 0xae, 0x2d, 0x3d, 0x46, 0xb8, 0x0d, 0x3d, 0xa9, 0x5f, 0x92, 0xbd,
  0xf2, 0xd4, 0x95, 0x3c, 0x66, 0xed, 0x0a, 0x3d, 0x37, 0xb2, 0x8f, 0xbd,
  0xb2, 0x4f, 0x37, 0xbc, 0xd9, 0xd9, 0x69, 0x3c, 0x5b, 0xc8, 0x7d, 0xbd,
  0xdf, 0x80, 0xe6, 0x3c, 0xfc, 0xe0, 0x57, 0x3d, 0xb9, 0xfe, 0xb2, 0xbc,
  0x3b, 0x58, 0x8b, 0x3c, 0x52, 0x68, 0x78, 0xbd, 0xe8, 0x1d, 0xa6, 0xbc,
  0x24, 0x70, 0x9c, 0xbc, 0x63, 0x1e, 0xc1, 0xbd, 0xae, 0xb7, 0x63, 0xbd,
  0x97, 0x36, 0xc8, 0xbb, 0xdf, 0x7d, 0xcd, 0x3c, 0x07, 0x6b, 0x87, 0x3c,
  0x2b, 0xb2, 0xc5, 0xbc, 0x2e, 0x19, 0x34, 0x3c, 0xbe, 0x3e, 0xda, 0x3c,
  0x32, 0x2c, 0xe2, 0xbc, 0x0c, 0x4f, 0x72, 0x3a, 0x58, 0x98, 0x2a, 0x3d,
  0x4e, 0xfb, 0xff, 0xff, 0x04, 0x00, 0x00, 0x00, 0x40, 0x00, 0x00, 0x00,
  0x06, 0x72, 0x4b, 0xbd, 0x9f, 0xb2, 0xe9, 0xbd, 0xec, 0x6d, 0x48, 0xbe,
  0xba, 0x37, 0xfd, 0xbd, 0x00, 0x3c, 0x32, 0x3b, 0x0e, 0xb9, 0x9e, 0xbe,
  0x06, 0x98, 0x87, 0xbe, 0x18, 0xe5, 0x31, 0xbe, 0xa4, 0x46, 0x32, 0xbd,
  0x85, 0xb7, 0x60, 0xbe, 0xae, 0x44, 0x67, 0xbe, 0xff, 0x28, 0x28, 0xbf,
  0x6b, 0xfa, 0x38, 0x3d, 0x8e, 0xec, 0x0c, 0xbe, 0x38, 0xe6, 0xef, 0xbd,
  0xc4, 0x8a, 0x57, 0xbc, 0x9a, 0xfb, 0xff, 0xff, 0x04, 0x00, 0x00, 0x00,
  0x08, 0x00, 0x00, 0x00, 0xff, 0xff, 0xff, 0xff, 0xd0, 0x00, 0x00, 0x00,
  0xae, 0xfb, 0xff, 0xff, 0x04, 0x00, 0x00, 0x00, 0x18, 0x00, 0x00, 0x00,
  0xae, 0xb7, 0x16, 0xbd, 0xba, 0xeb, 0xee, 0xbd, 0x70, 0xfd, 0xee, 0x3e,
  0xe6, 0x62, 0x0a, 0xbe, 0x04, 0xd8, 0x14, 0x3e, 0x07, 0x0b, 0x19, 0xbf,
  0xd2, 0xfb, 0xff, 0xff, 0x04, 0x00, 0x00, 0x00, 0x80, 0x00, 0x00, 0x00,
  0x17, 0x22, 0xbb, 0x3d, 0xd7, 0x86, 0xeb, 0xbe, 0x7f, 0x33, 0x07, 0x3f,
  0xdd, 0x5a, 0x1d, 0xbf, 0xdd, 0x61, 0xc5, 0x3e, 0x5f, 0x46, 0xde, 0x3d,
  0xbd, 0x9c, 0x53, 0x3d, 0x25, 0xc0, 0x26, 0x3d, 0xd9, 0x8f, 0x08, 0xbe,
  0x76, 0x47, 0xd9, 0x3d, 0x23, 0x04, 0xbe, 0xbd, 0x95, 0xa0, 0xd0, 0xbb,
  0x01, 0x49, 0x6a, 0x3e, 0xc5, 0x1b, 0xe0, 0xbe, 0xc2, 0x71, 0x9c, 0x3e,
  0x66, 0x2b, 0x0e, 0x3e, 0x1d, 0x22, 0x36, 0x3e, 0xf0, 0xd9, 0xbc, 0xbd,
  0xa7, 0xc9, 0x2c, 0xbe, 0x64, 0xba, 0xbf, 0x3e, 0xb3, 0xce, 0xb6, 0x3e,
  0x90, 0x89, 0xc6, 0xbe, 0x14, 0x1a, 0xd1, 0xbe, 0xf9, 0xdb, 0x29, 0xbf,
  0xd3, 0x63, 0x64, 0x3e, 0xf8, 0xa7, 0x94, 0x3e, 0x4a, 0xb2, 0xf3, 0x3e,
  0x6e, 0x85, 0x69, 0x3e, 0x33, 0xc3, 0xff, 0x3e, 0x06, 0x20, 0x9f, 0xbe,
  0xe5, 0xb6, 0x32, 0x3e, 0xe9, 0xd9, 0x42, 0xbe, 0x5e, 0xfc, 0xff, 0xff,
  0x04, 0x00, 0x00, 0x00, 0x00, 0x03, 0x00, 0x00, 0x6c, 0x44, 0xe3, 0xbe,
  0xe5, 0xcc, 0xba, 0xbe, 0xda, 0x7a, 0xee, 0xbc, 0x4a, 0x0f, 0xfa, 0xbb,
  0x13, 0xa0, 0x6b, 0x3f, 0x63, 0xb4, 0x23, 0xbf, 0xc3, 0x0f, 0x00, 0xbf,
  0x2e, 0x5e, 0x9d, 0xbf, 0x54, 0x0f, 0xe6, 0x3e, 0xac, 0x5f, 0x97, 0xbe,
  0xd0, 0x92, 0xd6, 0xbd, 0x8b, 0x3a, 0xc0, 0xbf, 0xe5, 0x5d, 0x6c, 0x3f,
  0xcd, 0x78, 0x81, 0xbf, 0x77, 0xe7, 0xa4, 0xbe, 0x67, 0x49, 0x29, 0x3f,
  0x18, 0x6e, 0x67, 0xbe, 0x9b, 0x21, 0xc2, 0xbe, 0xa1, 0xc9, 0xc3, 0xbf,
  0x28, 0x92, 0xd8, 0x3e, 0x54, 0xcd, 0xa3, 0xbf, 0x86, 0x2f, 0x02, 0xbe,
  0x17, 0xe1, 0x7f, 0xbf, 0x99, 0xb3, 0x45, 0xbf, 0x68, 0x60, 0xb2, 0xbf,
  0xaf, 0x20, 0x0d, 0xbe, 0x43, 0xe9, 0x08, 0x3e, 0x75, 0x9f, 0x89, 0xbf,
  0x30, 0x05, 0x51, 0xbf, 0x3b, 0x4f, 0x96, 0xbe, 0x8d, 0x43, 0x32, 0xbf,
  0x84, 0x10, 0xd2, 0x3e, 0x0b, 0x2f, 0x6b, 0x3e, 0xcd, 0x95, 0x43, 0xbf,
  0x16, 0x83, 0x86, 0x3e, 0xb9, 0x72, 0xaf, 0xbe, 0x83, 0xae, 0x6e, 0xbe,
  0x7a, 0xf9, 0x08, 0x3f, 0x4d, 0xec, 0x33, 0xbe, 0xa2, 0x08, 0xa9, 0x3e,
  0xc5, 0xd7, 0x36, 0x3e, 0x15, 0xdd, 0x68, 0x3e, 0x1f, 0x8e, 0x45, 0xbe,
  0x94, 0x82, 0x82, 0xbe, 0xbb, 0xab, 0x24, 0xbf, 0x64, 0xb8, 0x75, 0xbe,
  0xa4, 0x61, 0x49, 0xbd, 0x65, 0xc4, 0x86, 0xbe, 0x8c, 0xe5, 0x4a, 0xbe,
  0xac, 0x0a, 0xd1, 0xbe, 0xf8, 0x28, 0x43, 0x3f, 0xe4, 0x6e, 0x23, 0x3c,
  0xe2, 0x77, 0xa7, 0xbe, 0x22, 0x48, 0x07, 0xbf, 0x4f, 0x50, 0xd2, 0x3d,
  0x72, 0x27, 0xcc, 0x3e, 0xa1, 0xad, 0x33, 0x3f, 0xd1, 0xc3, 0xab, 0xbe,
  0x81, 0xfd, 0x88, 0x3e, 0xba, 0xb8, 0xd9, 0xbe, 0x81, 0x1b, 0xf2, 0x3d,
  0x8f, 0xdd, 0xc6, 0xbe, 0x0d, 0x58, 0xb4, 0xbe, 0x4b, 0x1f, 0x51, 0xbe,
  0xcf, 0x71, 0xcc, 0x3e, 0xa4, 0x34, 0x1f, 0xbc, 0x29, 0xb6, 0xd1, 0x3e,
  0x09, 0x6f, 0x20, 0xbf, 0x67, 0x12, 0x17, 0xbf, 0xcd, 0xd3, 0x82, 0x3e,
  0x2b, 0x07, 0x86, 0x3e, 0xc8, 0xf0, 0x20, 0x3d, 0x66, 0xf6, 0x6c, 0xbf,
  0xab, 0xf8, 0x84, 0xbd, 0xd7, 0x40, 0x2b, 0xbf, 0xb7, 0x49, 0x02, 0xbf,
  0xcf, 0xac, 0xf0, 0xbe, 0x4b, 0x52, 0xcc, 0xbe, 0xd9, 0x94, 0xd6, 0xbe,
  0x87, 0xeb, 0x82, 0x3e, 0x17, 0x44, 0x8f, 0xbe, 0xfb, 0x2d, 0xb1, 0x3c,
  0x3f, 0x63, 0x75, 0xbe, 0x08, 0xf0, 0x85, 0xbf, 0xac, 0x51, 0x23, 0x3f,
  0x53, 0x57, 0x4b, 0xbf, 0x88, 0xf7, 0x03, 0x3f, 0xb1, 0x79, 0x38, 0xbe,
  0xc1, 0x57, 0xe3, 0x3c, 0xc8, 0x37, 0x02, 0x3f, 0x7b, 0xa3, 0x0c, 0xbf,
  0xb0, 0x28, 0x96, 0x3e, 0x98, 0x43, 0xd8, 0x3e, 0x44, 0x2e, 0xe2, 0x3d,
  0x92, 0x8b, 0xf7, 0x3e, 0x86, 0xba, 0x49, 0xbe, 0x6c, 0x9c, 0x9a, 0x3e,
  0x68, 0x7a, 0x50, 0xbe, 0xab, 0x09, 0xe1, 0xbd, 0xe8, 0x9b, 0x39, 0xbe,
  0x28, 0x94, 0x64, 0x3e, 0x6b, 0x45, 0x06, 0x3e, 0x67, 0x3e, 0xb8, 0x3e,
  0xc6, 0x19, 0x7a, 0xbe, 0x11, 0x10, 0x1c, 0xbe, 0x58, 0x55, 0xaf, 0x3e,
  0x49, 0x1e, 0xa7, 0x3e, 0x53, 0xef, 0x75, 0x3e, 0x58, 0x1e, 0x50, 0xbe,
  0x50, 0xc5, 0xdf, 0xbc, 0xe9, 0x85, 0xfd, 0x3e, 0x8a, 0xb9, 0x5f, 0xbf,
  0x93, 0xd6, 0x44, 0x3e, 0xee, 0x75, 0x3b, 0xbe, 0xa0, 0xc7, 0x4c, 0x3e,
  0x0e, 0x0f, 0xa8, 0xbc, 0x15, 0x6d, 0x07, 0xbe, 0x4f, 0x6c, 0xd3, 0xbd,
  0xfe, 0x97, 0x0d, 0xbe, 0xd8, 0xd4, 0x3c, 0x3e, 0x3a, 0x19, 0x2f, 0x3b,
  0x35, 0x3b, 0x54, 0xbe, 0xfc, 0xdf, 0xf5, 0x3c, 0x6a, 0x8e, 0x79, 0xbd,
  0x13, 0xcd, 0xab, 0x3e, 0xb9, 0x4e, 0x28, 0x3e, 0x62, 0x01, 0xd2, 0xbe,
  0x37, 0xcf, 0xe3, 0x3e, 0x1c, 0xac, 0x25, 0xbf, 0x99, 0x54, 0xa4, 0xbe,
  0x92, 0x2c, 0xd0, 0x3e, 0x6f, 0x09, 0xd4, 0xbe, 0x89, 0x90, 0x8a, 0xbd,
  0x5f, 0x91, 0xa2, 0xbe, 0x0c, 0xc3, 0xef, 0xbe, 0xa2, 0x3b, 0x35, 0xbf,
  0x35, 0x52, 0xab, 0xbd, 0x4f, 0x6a, 0x08, 0x3f, 0x8e, 0x33, 0x4d, 0xbe,
  0x8e, 0xaa, 0x1b, 0x3f, 0x5d, 0xc8, 0x04, 0xbf, 0x9b, 0xcd, 0x54, 0xbf,
  0x61, 0xea, 0x00, 0x3f, 0x34, 0x18, 0xc0, 0x3d, 0x11, 0x4d, 0xee, 0x3e,
  0x83, 0x8a, 0x4a, 0x3f, 0xf6, 0x85, 0xe8, 0xbd, 0xd7, 0xa0, 0x07, 0x3f,
  0x88, 0x2e, 0xba, 0x3e, 0x48, 0xd0, 0xdf, 0xbe, 0x87, 0x2b, 0x70, 0x3e,
  0x62, 0x69, 0x22, 0xbf, 0x0f, 0xfb, 0x23, 0xbf, 0x03, 0x5a, 0x04, 0xbf,
  0x1e, 0x21, 0x22, 0xbf, 0x0e, 0x17, 0xbb, 0x3e, 0x3c, 0x9e, 0x78, 0x3e,
  0x41, 0xc3, 0x82, 0xbf, 0x07, 0xe2, 0x66, 0x3e, 0x84, 0x5a, 0xb9, 0x3d,
  0x4d, 0x79, 0x01, 0xbf, 0xf4, 0x88, 0x26, 0x3e, 0x65, 0x22, 0xc8, 0xbe,
  0x2b, 0xd3, 0x79, 0xbe, 0x4d, 0x36, 0x88, 0xbe, 0x81, 0xe0, 0xc0, 0x3e,
  0x6b, 0xb7, 0xff, 0x3e, 0xbc, 0xc6, 0x25, 0xbf, 0x59, 0x62, 0xff, 0x3d,
  0x4a, 0x0b, 0x03, 0xbf, 0x3b, 0xd9, 0x99, 0xbe, 0xda, 0xe8, 0x4b, 0xbf,
  0x8c, 0xb6, 0xa1, 0xbe, 0x4b, 0xeb, 0x3c, 0x3f, 0x0f, 0x63, 0xfb, 0xbe,
  0x0b, 0x7e, 0x60, 0x3d, 0xe6, 0x24, 0x58, 0x3e, 0xec, 0xed, 0x52, 0xbd,
  0x7f, 0xe9, 0xc7, 0xbd, 0x55, 0xc0, 0x59, 0xbf, 0xe4, 0x71, 0xac, 0x3e,
  0xdf, 0x66, 0x18, 0x3e, 0xb8, 0x23, 0x1a, 0xbf, 0x41, 0x09, 0x12, 0x3e,
  0xd7, 0xf6, 0x0b, 0xbe, 0x7e, 0x04, 0x9e, 0x3e, 0xf7, 0x8d, 0xc7, 0x3e,
  0xc0, 0xc9, 0x20, 0x3e, 0x56, 0xf2, 0xfb, 0xbc, 0x7b, 0x18, 0x5b, 0x3f,
  0xfb, 0xfe, 0x6f, 0xbe, 0x61, 0x18, 0x36, 0x3e, 0xcc, 0xf3, 0xff, 0xff,
  0xd0, 0xf3, 0xff, 0xff, 0x0f, 0x00, 0x00, 0x00, 0x4d, 0x4c, 0x49, 0x52,
  0x20, 0x43, 0x6f, 0x6e, 0x76, 0x65, 0x72, 0x74, 0x65, 0x64, 0x2e, 0x00,
  0x01, 0x00, 0x00, 0x00, 0x14, 0x00, 0x00, 0x00, 0x00, 0x00, 0x0e, 0x00,
  0x18, 0x00, 0x14, 0x00, 0x10, 0x00, 0x0c, 0x00, 0x08, 0x00, 0x04, 0x00,
  0x0e, 0x00, 0x00, 0x00, 0x14, 0x00, 0x00, 0x00, 0x1c, 0x00, 0x00, 0x00,
  0x58, 0x02, 0x00, 0x00, 0x5c, 0x02, 0x00, 0x00, 0x60, 0x02, 0x00, 0x00,
  0x04, 0x00, 0x00, 0x00, 0x6d, 0x61, 0x69, 0x6e, 0x00, 0x00, 0x00, 0x00,
  0x08, 0x00, 0x00, 0x00, 0xf0, 0x01, 0x00, 0x00, 0x8c, 0x01, 0x00, 0x00,
  0x38, 0x01, 0x00, 0x00, 0xf4, 0x00, 0x00, 0x00, 0xcc, 0x00, 0x00, 0x00,
  0x78, 0x00, 0x00, 0x00, 0x40, 0x00, 0x00, 0x00, 0x04, 0x00, 0x00, 0x00,
  0x9e, 0xfe, 0xff, 0xff, 0x1c, 0x00, 0x00, 0x00, 0x00, 0x00, 0x00, 0x09,
  0x1c, 0x00, 0x00, 0x00, 0x20, 0x00, 0x00, 0x00, 0x04, 0x00, 0x00, 0x00,
  0x00, 0x00, 0x06, 0x00, 0x08, 0x00, 0x04, 0x00, 0x06, 0x00, 0x00, 0x00,
  0x00, 0x00, 0x80, 0x3f, 0x01, 0x00, 0x00, 0x00, 0x11, 0x00, 0x00, 0x00,
  0x01, 0x00, 0x00, 0x00, 0x10, 0x00, 0x00, 0x00, 0xd6, 0xfe, 0xff, 0xff,
  0x14, 0x00, 0x00, 0x00, 0x00, 0x00, 0x00, 0x08, 0x10, 0x00, 0x00, 0x00,
  0x14, 0x00, 0x00, 0x00, 0x03, 0x00, 0x00, 0x00, 0x98, 0xf4, 0xff, 0xff,
  0x01, 0x00, 0x00, 0x00, 0x10, 0x00, 0x00, 0x00, 0x03, 0x00, 0x00, 0x00,
  0x0f, 0x00, 0x00, 0x00, 0x01, 0x00, 0x00, 0x00, 0x03, 0x00, 0x00, 0x00,
  0x0a, 0xff, 0xff, 0xff, 0x20, 0x00, 0x00, 0x00, 0x00, 0x00, 0x00, 0x08,
  0x20, 0x00, 0x00, 0x00, 0x24, 0x00, 0x00, 0x00, 0x03, 0x00, 0x00, 0x00,
  0x0c, 0x00, 0x08, 0x00, 0x07, 0x00, 0x00, 0x00, 0x00, 0x00, 0x06, 0x00,
  0x0c, 0x00, 0x00, 0x00, 0x00, 0x00, 0x01, 0x01, 0x01, 0x00, 0x00, 0x00,
  0x0f, 0x00, 0x00, 0x00, 0x03, 0x00, 0x00, 0x00, 0x0e, 0x00, 0x00, 0x00,
  0x09, 0x00, 0x00, 0x00, 0x02, 0x00, 0x00, 0x00, 0x00, 0x00, 0x0a, 0x00,
  0x10, 0x00, 0x0c, 0x00, 0x08, 0x00, 0x04, 0x00, 0x0a, 0x00, 0x00, 0x00,
  0x0c, 0x00, 0x00, 0x00, 0x10, 0x00, 0x00, 0x00, 0x02, 0x00, 0x00, 0x00,
  0x01, 0x00, 0x00, 0x00, 0x0e, 0x00, 0x00, 0x00, 0x02, 0x00, 0x00, 0x00,
  0x0d, 0x00, 0x00, 0x00, 0x04, 0x00, 0x00, 0x00, 0x7e, 0xff, 0xff, 0xff,
  0x14, 0x00, 0x00, 0x00, 0x00, 0x00, 0x00, 0x05, 0x24, 0x00, 0x00, 0x00,
  0x28, 0x00, 0x00, 0x00, 0x01, 0x00, 0x00, 0x00, 0x6e, 0xff, 0xff, 0xff,
  0x02, 0x00, 0x00, 0x00, 0x02, 0x00, 0x00, 0x00, 0x02, 0x00, 0x00, 0x00,
  0x02, 0x00, 0x00, 0x00, 0x00, 0x00, 0x00, 0x01, 0x01, 0x00, 0x00, 0x00,
  0x0d, 0x00, 0x00, 0x00, 0x01, 0x00, 0x00, 0x00, 0x0c, 0x00, 0x00, 0x00,
  0x5e, 0xff, 0xff, 0xff, 0x10, 0x00, 0x00, 0x00, 0x00, 0x00, 0x00, 0x01,
  0x1c, 0x00, 0x00, 0x00, 0x20, 0x00, 0x00, 0x00, 0x50, 0xff, 0xff, 0xff,
  0x00, 0x00, 0x00, 0x01, 0x01, 0x00, 0x00, 0x00, 0x01, 0x00, 0x00, 0x00,
  0x00, 0x00, 0x00, 0x01, 0x01, 0x00, 0x00, 0x00, 0x0c, 0x00, 0x00, 0x00,
  0x03, 0x00, 0x00, 0x00, 0x0b, 0x00, 0x00, 0x00, 0x08, 0x00, 0x00, 0x00,
  0x07, 0x00, 0x00, 0x00, 0x00, 0x00, 0x0e, 0x00, 0x1a, 0x00, 0x14, 0x00,
  0x10, 0x00, 0x0c, 0x00, 0x0b, 0x00, 0x04, 0x00, 0x0e, 0x00, 0x00, 0x00,
  0x24, 0x00, 0x00, 0x00, 0x00, 0x00, 0x00, 0x05, 0x34, 0x00, 0x00, 0x00,
  0x38, 0x00, 0x00, 0x00, 0x01, 0x00, 0x00, 0x00, 0x00, 0x00, 0x0e, 0x00,
  0x18, 0x00, 0x17, 0x00, 0x10, 0x00, 0x0c, 0x00, 0x08, 0x00, 0x04, 0x00,
  0x0e, 0x00, 0x00, 0x00, 0x02, 0x00, 0x00, 0x00, 0x02, 0x00, 0x00, 0x00,
  0x02, 0x00, 0x00, 0x00, 0x02, 0x00, 0x00, 0x00, 0x00, 0x00, 0x00, 0x01,
  0x01, 0x00, 0x00, 0x00, 0x0b, 0x00, 0x00, 0x00, 0x01, 0x00, 0x00, 0x00,
  0x0a, 0x00, 0x00, 0x00, 0x00, 0x00, 0x0e, 0x00, 0x14, 0x00, 0x00, 0x00,
  0x10, 0x00, 0x0c, 0x00, 0x0b, 0x00, 0x04, 0x00, 0x0e, 0x00, 0x00, 0x00,
  0x1c, 0x00, 0x00, 0x00, 0x00, 0x00, 0x00, 0x01, 0x28, 0x00, 0x00, 0x00,
  0x2c, 0x00, 0x00, 0x00, 0x0c, 0x00, 0x14, 0x00, 0x13, 0x00, 0x0c, 0x00,
  0x08, 0x00, 0x07, 0x00, 0x0c, 0x00, 0x00, 0x00, 0x00, 0x00, 0x00, 0x01,
  0x01, 0x00, 0x00, 0x00, 0x01, 0x00, 0x00, 0x00, 0x00, 0x00, 0x00, 0x01,
  0x01, 0x00, 0x00, 0x00, 0x0a, 0x00, 0x00, 0x00, 0x03, 0x00, 0x00, 0x00,
  0x00, 0x00, 0x00, 0x00, 0x06, 0x00, 0x00, 0x00, 0x05, 0x00, 0x00, 0x00,
  0x01, 0x00, 0x00, 0x00, 0x11, 0x00, 0x00, 0x00, 0x01, 0x00, 0x00, 0x00,
  0x00, 0x00, 0x00, 0x00, 0x12, 0x00, 0x00, 0x00, 0x58, 0x09, 0x00, 0x00,
  0xf4, 0x08, 0x00, 0x00, 0x88, 0x08, 0x00, 0x00, 0x30, 0x08, 0x00, 0x00,
  0xe4, 0x07, 0x00, 0x00, 0x10, 0x07, 0x00, 0x00, 0x48, 0x06, 0x00, 0x00,
  0xf0, 0x05, 0x00, 0x00, 0xb8, 0x04, 0x00, 0x00, 0x50, 0x04, 0x00, 0x00,
  0x70, 0x03, 0x00, 0x00, 0xfc, 0x02, 0x00, 0x00, 0x30, 0x02, 0x00, 0x00,
  0xbc, 0x01, 0x00, 0x00, 0x60, 0x01, 0x00, 0x00, 0xd8, 0x00, 0x00, 0x00,
  0x60, 0x00, 0x00, 0x00, 0x04, 0x00, 0x00, 0x00, 0x06, 0xf7, 0xff, 0xff,
  0x00, 0x00, 0x00, 0x01, 0x14, 0x00, 0x00, 0x00, 0x1c, 0x00, 0x00, 0x00,
  0x1c, 0x00, 0x00, 0x00, 0x12, 0x00, 0x00, 0x00, 0x34, 0x00, 0x00, 0x00,
  0x02, 0x00, 0x00, 0x00, 0xff, 0xff, 0xff, 0xff, 0x06, 0x00, 0x00, 0x00,
  0xe8, 0xf6, 0xff, 0xff, 0x19, 0x00, 0x00, 0x00, 0x53, 0x74, 0x61, 0x74,
  0x65, 0x66, 0x75, 0x6c, 0x50, 0x61, 0x72, 0x74, 0x69, 0x74, 0x69, 0x6f,
  0x6e, 0x65, 0x64, 0x43, 0x61, 0x6c, 0x6c, 0x3a, 0x30, 0x00, 0x00, 0x00,
  0x02, 0x00, 0x00, 0x00, 0x01, 0x00, 0x00, 0x00, 0x06, 0x00, 0x00, 0x00,
  0x5e, 0xf7, 0xff, 0xff, 0x00, 0x00, 0x00, 0x01, 0x14, 0x00, 0x00, 0x00,
  0x1c, 0x00, 0x00, 0x00, 0x1c, 0x00, 0x00, 0x00, 0x11, 0x00, 0x00, 0x00,
  0x50, 0x00, 0x00, 0x00, 0x02, 0x00, 0x00, 0x00, 0xff, 0xff, 0xff, 0xff,
  0x06, 0x00, 0x00, 0x00, 0x40, 0xf7, 0xff, 0xff, 0x34, 0x00, 0x00, 0x00,
  0x73, 0x65, 0x71, 0x75, 0x65, 0x6e, 0x74, 0x69, 0x61, 0x6c, 0x2f, 0x64,
  0x65, 0x6e, 0x73, 0x65, 0x5f, 0x31, 0x2f, 0x4d, 0x61, 0x74, 0x4d, 0x75,
  0x6c, 0x3b, 0x73, 0x65, 0x71, 0x75, 0x65, 0x6e, 0x74, 0x69, 0x61, 0x6c,
  0x2f, 0x64, 0x65, 0x6e, 0x73, 0x65, 0x5f, 0x31, 0x2f, 0x42, 0x69, 0x61,
  0x73, 0x41, 0x64, 0x64, 0x00, 0x00, 0x00, 0x00, 0x02, 0x00, 0x00, 0x00,
  0x01, 0x00, 0x00, 0x00, 0x06, 0x00, 0x00, 0x00, 0xd2, 0xf7, 0xff, 0xff,
  0x00, 0x00, 0x00, 0x01, 0x14, 0x00, 0x00, 0x00, 0x1c, 0x00, 0x00, 0x00,
  0x1c, 0x00, 0x00, 0x00, 0x10, 0x00, 0x00, 0x00, 0x60, 0x00, 0x00, 0x00,
  0x02, 0x00, 0x00, 0x00, 0xff, 0xff, 0xff, 0xff, 0x20, 0x00, 0x00, 0x00,
  0xb4, 0xf7, 0xff, 0xff, 0x46, 0x00, 0x00, 0x00, 0x73, 0x65, 0x71, 0x75,
  0x65, 0x6e, 0x74, 0x69, 0x61, 0x6c, 0x2f, 0x64, 0x65, 0x6e, 0x73, 0x65,
  0x2f, 0x4d, 0x61, 0x74, 0x4d, 0x75, 0x6c, 0x3b, 0x73, 0x65, 0x71, 0x75,
  0x65, 0x6e, 0x74, 0x69, 0x61, 0x6c, 0x2f, 0x64, 0x65, 0x6e, 0x73, 0x65,
  0x2f, 0x52, 0x65, 0x6c, 0x75, 0x3b, 0x73, 0x65, 0x71, 0x75, 0x65, 0x6e,
  0x74, 0x69, 0x61, 0x6c, 0x2f, 0x64, 0x65, 0x6e, 0x73, 0x65, 0x2f, 0x42,
  0x69, 0x61, 0x73, 0x41, 0x64, 0x64, 0x00, 0x00, 0x02, 0x00, 0x00, 0x00,
  0x01, 0x00, 0x00, 0x00, 0x20, 0x00, 0x00, 0x00, 0x56, 0xf8, 0xff, 0xff,
  0x00, 0x00, 0x00, 0x01, 0x14, 0x00, 0x00, 0x00, 0x1c, 0x00, 0x00, 0x00,
  0x1c, 0x00, 0x00, 0x00, 0x0f, 0x00, 0x00, 0x00, 0x34, 0x00, 0x00, 0x00,
  0x02, 0x00, 0x00, 0x00, 0xff, 0xff, 0xff, 0xff, 0xd0, 0x00, 0x00, 0x00,
  0x38, 0xf8, 0xff, 0xff, 0x1a, 0x00, 0x00, 0x00, 0x73, 0x65, 0x71, 0x75,
  0x65, 0x6e, 0x74, 0x69, 0x61, 0x6c, 0x2f, 0x66, 0x6c, 0x61, 0x74, 0x74,
  0x65, 0x6e, 0x2f, 0x52, 0x65, 0x73, 0x68, 0x61, 0x70, 0x65, 0x00, 0x00,
  0x02, 0x00, 0x00, 0x00, 0x01, 0x00, 0x00, 0x00, 0xd0, 0x00, 0x00, 0x00,
  0xae, 0xf8, 0xff, 0xff, 0x00, 0x00, 0x00, 0x01, 0x14, 0x00, 0x00, 0x00,
  0x24, 0x00, 0x00, 0x00, 0x24, 0x00, 0x00, 0x00, 0x0e, 0x00, 0x00, 0x00,
  0x44, 0x00, 0x00, 0x00, 0x04, 0x00, 0x00, 0x00, 0xff, 0xff, 0xff, 0xff,
  0x0d, 0x00, 0x00, 0x00, 0x01, 0x00, 0x00, 0x00, 0x10, 0x00, 0x00, 0x00,
  0x98, 0xf8, 0xff, 0xff, 0x22, 0x00, 0x00, 0x00, 0x73, 0x65, 0x71, 0x75,
  0x65, 0x6e, 0x74, 0x69, 0x61, 0x6c, 0x2f, 0x6d, 0x61, 0x78, 0x5f, 0x70,
  0x6f, 0x6f, 0x6c, 0x69, 0x6e, 0x67, 0x32, 0x64, 0x5f, 0x31, 0x2f, 0x4d,
  0x61, 0x78, 0x50, 0x6f, 0x6f, 0x6c, 0x00, 0x00, 0x04, 0x00, 0x00, 0x00,
  0x01, 0x00, 0x00, 0x00, 0x0d, 0x00, 0x00, 0x00, 0x01, 0x00, 0x00, 0x00,
  0x10, 0x00, 0x00, 0x00, 0x1e, 0xf9, 0xff, 0xff, 0x00, 0x00, 0x00, 0x01,
  0x14, 0x00, 0x00, 0x00, 0x24, 0x00, 0x00, 0x00, 0x24, 0x00, 0x00, 0x00,
  0x0d, 0x00, 0x00, 0x00, 0x9c, 0x00, 0x00, 0x00, 0x04, 0x00, 0x00, 0x00,
  0xff, 0xff, 0xff, 0xff, 0x1b, 0x00, 0x00, 0x00, 0x03, 0x00, 0x00, 0x00,
  0x10, 0x00, 0x00, 0x00, 0x08, 0xf9, 0xff, 0xff, 0x7a, 0x00, 0x00, 0x00,
  0x73, 0x65, 0x71, 0x75, 0x65, 0x6e, 0x74, 0x69, 0x61, 0x6c, 0x2f, 0x63,
  0x6f, 0x6e, 0x76, 0x32, 0x64, 0x5f, 0x31, 0x2f, 0x52, 0x65, 0x6c, 0x75,
  0x3b, 0x73, 0x65, 0x71, 0x75, 0x65, 0x6e, 0x74, 0x69, 0x61, 0x6c, 0x2f,
  0x63, 0x6f, 0x6e, 0x76, 0x32, 0x64, 0x5f, 0x31, 0x2f, 0x42, 0x69, 0x61,
  0x73, 0x41, 0x64, 0x64, 0x3b, 0x73, 0x65, 0x71, 0x75, 0x65, 0x6e, 0x74,
  0x69, 0x61, 0x6c, 0x2f, 0x63, 0x6f, 0x6e, 0x76, 0x32, 0x64, 0x5f, 0x31,
  0x2f, 0x43, 0x6f, 0x6e, 0x76, 0x32, 0x44, 0x3b, 0x73, 0x65, 0x71, 0x75,
  0x65, 0x6e, 0x74, 0x69, 0x61, 0x6c, 0x2f, 0x63, 0x6f, 0x6e, 0x76, 0x32,
  0x64, 0x5f, 0x31, 0x2f, 0x42, 0x69, 0x61, 0x73, 0x41, 0x64, 0x64, 0x2f,
  0x52, 0x65, 0x61, 0x64, 0x56, 0x61, 0x72, 0x69, 0x61, 0x62, 0x6c, 0x65,
  0x4f, 0x70, 0x00, 0x00, 0x04, 0x00, 0x00, 0x00, 0x01, 0x00, 0x00, 0x00,
  0x1b, 0x00, 0x00, 0x00, 0x03, 0x00, 0x00, 0x00, 0x10, 0x00, 0x00, 0x00,
  0xe6, 0xf9, 0xff, 0xff, 0x00, 0x00, 0x00, 0x01, 0x14, 0x00, 0x00, 0x00,
  0x24, 0x00, 0x00, 0x00, 0x24, 0x00, 0x00, 0x00, 0x0c, 0x00, 0x00, 0x00,
  0x44, 0x00, 0x00, 0x00, 0x04, 0x00, 0x00, 0x00, 0xff, 0xff, 0xff, 0xff,
  0x1d, 0x00, 0x00, 0x00, 0x05, 0x00, 0x00, 0x00, 0x10, 0x00, 0x00, 0x00,
  0xd0, 0xf9, 0xff, 0xff, 0x20, 0x00, 0x00, 0x00, 0x73, 0x65, 0x71, 0x75,
  0x65, 0x6e, 0x74, 0x69, 0x61, 0x6c, 0x2f, 0x6d, 0x61, 0x78, 0x5f, 0x70,
  0x6f, 0x6f, 0x6c, 0x69, 0x6e, 0x67, 0x32, 0x64, 0x2f, 0x4d, 0x61, 0x78,
  0x50, 0x6f, 0x6f, 0x6c, 0x00, 0x00, 0x00, 0x00, 0x04, 0x00, 0x00, 0x00,
  0x01, 0x00, 0x00, 0x00, 0x1d, 0x00, 0x00, 0x00, 0x05, 0x00, 0x00, 0x00,
  0x10, 0x00, 0x00, 0x00, 0x56, 0xfa, 0xff, 0xff, 0x00, 0x00, 0x00, 0x01,
  0x14, 0x00, 0x00, 0x00, 0x24, 0x00, 0x00, 0x00, 0x24, 0x00, 0x00, 0x00,
  0x0b, 0x00, 0x00, 0x00, 0xb0, 0x00, 0x00, 0x00, 0x04, 0x00, 0x00, 0x00,
  0xff, 0xff, 0xff, 0xff, 0x3b, 0x00, 0x00, 0x00, 0x0b, 0x00, 0x00, 0x00,
  0x10, 0x00, 0x00, 0x00, 0x40, 0xfa, 0xff, 0xff, 0x8e, 0x00, 0x00, 0x00,
  0x73, 0x65, 0x71, 0x75, 0x65, 0x6e, 0x74, 0x69, 0x61, 0x6c, 0x2f, 0x63,
  0x6f, 0x6e, 0x76, 0x32, 0x64, 0x2f, 0x52, 0x65, 0x6c, 0x75, 0x3b, 0x73,
  0x65, 0x71, 0x75, 0x65, 0x6e, 0x74, 0x69, 0x61, 0x6c, 0x2f, 0x63, 0x6f,
  0x6e, 0x76, 0x32, 0x64, 0x2f, 0x42, 0x69, 0x61, 0x73, 0x41, 0x64, 0x64,
  0x3b, 0x73, 0x65, 0x71, 0x75, 0x65, 0x6e, 0x74, 0x69, 0x61, 0x6c, 0x2f,
  0x63, 0x6f, 0x6e, 0x76, 0x32, 0x64, 0x5f, 0x31, 0x2f, 0x43, 0x6f, 0x6e,
  0x76, 0x32, 0x44, 0x3b, 0x73, 0x65, 0x71, 0x75, 0x65, 0x6e, 0x74, 0x69,
  0x61, 0x6c, 0x2f, 0x63, 0x6f, 0x6e, 0x76, 0x32, 0x64, 0x2f, 0x43, 0x6f,
  0x6e, 0x76, 0x32, 0x44, 0x3b, 0x73, 0x65, 0x71, 0x75, 0x65, 0x6e, 0x74,
  0x69, 0x61, 0x6c, 0x2f, 0x63, 0x6f, 0x6e, 0x76, 0x32, 0x64, 0x2f, 0x42,
  0x69, 0x61, 0x73, 0x41, 0x64, 0x64, 0x2f, 0x52, 0x65, 0x61, 0x64, 0x56,
  0x61, 0x72, 0x69, 0x61, 0x62, 0x6c, 0x65, 0x4f, 0x70, 0x32, 0x00, 0x00,
  0x04, 0x00, 0x00, 0x00, 0x01, 0x00, 0x00, 0x00, 0x3b, 0x00, 0x00, 0x00,
  0x0b, 0x00, 0x00, 0x00, 0x10, 0x00, 0x00, 0x00, 0x96, 0xfc, 0xff, 0xff,
  0x00, 0x00, 0x00, 0x01, 0x14, 0x00, 0x00, 0x00, 0x30, 0x00, 0x00, 0x00,
  0x0a, 0x00, 0x00, 0x00, 0x00, 0x00, 0x00, 0x09, 0x40, 0x00, 0x00, 0x00,
  0x9c, 0xff, 0xff, 0xff, 0x08, 0x00, 0x00, 0x00, 0x10, 0x00, 0x00, 0x00,
  0x01, 0x00, 0x00, 0x00, 0x00, 0x00, 0x00, 0x00, 0x00, 0x00, 0x00, 0x00,
  0x01, 0x00, 0x00, 0x00, 0x8d, 0xaf, 0x7c, 0x3c, 0x17, 0x00, 0x00, 0x00,
  0x73, 0x65, 0x71, 0x75, 0x65, 0x6e, 0x74, 0x69, 0x61, 0x6c, 0x2f, 0x64,
  0x65, 0x6e, 0x73, 0x65, 0x2f, 0x4d, 0x61, 0x74, 0x4d, 0x75, 0x6c, 0x00,
  0x02, 0x00, 0x00, 0x00, 0x20, 0x00, 0x00, 0x00, 0xd0, 0x00, 0x00, 0x00,
  0xfa, 0xfc, 0xff, 0xff, 0x00, 0x00, 0x00, 0x01, 0x20, 0x00, 0x00, 0x00,
  0xf4, 0x00, 0x00, 0x00, 0x09, 0x00, 0x00, 0x00, 0x00, 0x00, 0x00, 0x09,
  0x08, 0x01, 0x00, 0x00, 0x0c, 0x00, 0x0c, 0x00, 0x00, 0x00, 0x00, 0x00,
  0x08, 0x00, 0x04, 0x00, 0x0c, 0x00, 0x00, 0x00, 0x08, 0x00, 0x00, 0x00,
  0x8c, 0x00, 0x00, 0x00, 0x10, 0x00, 0x00, 0x00, 0x00, 0x00, 0x00, 0x00,
  0x00, 0x00, 0x00, 0x00, 0x00, 0x00, 0x00, 0x00, 0x00, 0x00, 0x00, 0x00,
  0x00, 0x00, 0x00, 0x00, 0x00, 0x00, 0x00, 0x00, 0x00, 0x00, 0x00, 0x00,
  0x00, 0x00, 0x00, 0x00, 0x00, 0x00, 0x00, 0x00, 0x00, 0x00, 0x00, 0x00,
  0x00, 0x00, 0x00, 0x00, 0x00, 0x00, 0x00, 0x00, 0x00, 0x00, 0x00, 0x00,
  0x00, 0x00, 0x00, 0x00, 0x00, 0x00, 0x00, 0x00, 0x00, 0x00, 0x00, 0x00,
  0x00, 0x00, 0x00, 0x00, 0x00, 0x00, 0x00, 0x00, 0x00, 0x00, 0x00, 0x00,
  0x00, 0x00, 0x00, 0x00, 0x00, 0x00, 0x00, 0x00, 0x00, 0x00, 0x00, 0x00,
  0x00, 0x00, 0x00, 0x00, 0x00, 0x00, 0x00, 0x00, 0x00, 0x00, 0x00, 0x00,
  0x00, 0x00, 0x00, 0x00, 0x00, 0x00, 0x00, 0x00, 0x00, 0x00, 0x00, 0x00,
  0x00, 0x00, 0x00, 0x00, 0x00, 0x00, 0x00, 0x00, 0x00, 0x00, 0x00, 0x00,
  0x00, 0x00, 0x00, 0x00, 0x00, 0x00, 0x00, 0x00, 0x10, 0x00, 0x00, 0x00,
  0x38, 0x1b, 0xea, 0x3a, 0xb8, 0x8a, 0x32, 0x3c, 0x1a, 0x36, 0xfe, 0x3b,
  0xb4, 0x66, 0x6d, 0x3c, 0x2f, 0x77, 0x19, 0x3c, 0x53, 0xc0, 0xb1, 0x3a,
  0x61, 0x4c, 0x0a, 0x3b, 0x0d, 0xa5, 0x35, 0x3c, 0x66, 0xcd, 0x16, 0x3c,
  0xbe, 0xb8, 0xec, 0x3b, 0xfa, 0xa3, 0x15, 0x3c, 0x0f, 0x4f, 0x2e, 0x3c,
  0x73, 0xad, 0x3f, 0x3c, 0xf4, 0x32, 0x34, 0x3c, 0x20, 0x56, 0x4e, 0x3c,
  0x53, 0x06, 0x28, 0x3c, 0x1a, 0x00, 0x00, 0x00, 0x73, 0x65, 0x71, 0x75,
  0x65, 0x6e, 0x74, 0x69, 0x61, 0x6c, 0x2f, 0x63, 0x6f, 0x6e, 0x76, 0x32,
  0x64, 0x5f, 0x31, 0x2f, 0x43, 0x6f, 0x6e, 0x76, 0x32, 0x44, 0x00, 0x00,
  0x04, 0x00, 0x00, 0x00, 0x10, 0x00, 0x00, 0x00, 0x03, 0x00, 0x00, 0x00,
  0x03, 0x00, 0x00, 0x00, 0x10, 0x00, 0x00, 0x00, 0x2a, 0xfd, 0xff, 0xff,
  0x00, 0x00, 0x00, 0x01, 0x10, 0x00, 0x00, 0x00, 0x10, 0x00, 0x00, 0x00,
  0x08, 0x00, 0x00, 0x00, 0x38, 0x00, 0x00, 0x00, 0x9c, 0xfc, 0xff, 0xff,
  0x2a, 0x00, 0x00, 0x00, 0x73, 0x65, 0x71, 0x75, 0x65, 0x6e, 0x74, 0x69,
  0x61, 0x6c, 0x2f, 0x63, 0x6f, 0x6e, 0x76, 0x32, 0x64, 0x5f, 0x31, 0x2f,
  0x42, 0x69, 0x61, 0x73, 0x41, 0x64, 0x64, 0x2f, 0x52, 0x65, 0x61, 0x64,
  0x56, 0x61, 0x72, 0x69, 0x61, 0x62, 0x6c, 0x65, 0x4f, 0x70, 0x00, 0x00,
  0x01, 0x00, 0x00, 0x00, 0x10, 0x00, 0x00, 0x00, 0x7e, 0xfd, 0xff, 0xff,
  0x00, 0x00, 0x00, 0x01, 0x10, 0x00, 0x00, 0x00, 0x10, 0x00, 0x00, 0x00,
  0x07, 0x00, 0x00, 0x00, 0x9c, 0x00, 0x00, 0x00, 0xf0, 0xfc, 0xff, 0xff,
  0x8e, 0x00, 0x00, 0x00, 0x73, 0x65, 0x71, 0x75, 0x65, 0x6e, 0x74, 0x69,
  0x61, 0x6c, 0x2f, 0x63, 0x6f, 0x6e, 0x76, 0x32, 0x64, 0x2f, 0x52, 0x65,
  0x6c, 0x75, 0x3b, 0x73, 0x65, 0x71, 0x75, 0x65, 0x6e, 0x74, 0x69, 0x61,
  0x6c, 0x2f, 0x63, 0x6f, 0x6e, 0x76, 0x32, 0x64, 0x2f, 0x42, 0x69, 0x61,
  0x73, 0x41, 0x64, 0x64, 0x3b, 0x73, 0x65, 0x71, 0x75, 0x65, 0x6e, 0x74,
  0x69, 0x61, 0x6c, 0x2f, 0x63, 0x6f, 0x6e, 0x76, 0x32, 0x64, 0x5f, 0x31,
  0x2f, 0x43, 0x6f, 0x6e, 0x76, 0x32, 0x44, 0x3b, 0x73, 0x65, 0x71, 0x75,
  0x65, 0x6e, 0x74, 0x69, 0x61, 0x6c, 0x2f, 0x63, 0x6f, 0x6e, 0x76, 0x32,
  0x64, 0x2f, 0x43, 0x6f, 0x6e, 0x76, 0x32, 0x44, 0x3b, 0x73, 0x65, 0x71,
  0x75, 0x65, 0x6e, 0x74, 0x69, 0x61, 0x6c, 0x2f, 0x63, 0x6f, 0x6e, 0x76,
  0x32, 0x64, 0x2f, 0x42, 0x69, 0x61, 0x73, 0x41, 0x64, 0x64, 0x2f, 0x52,
  0x65, 0x61, 0x64, 0x56, 0x61, 0x72, 0x69, 0x61, 0x62, 0x6c, 0x65, 0x4f,
  0x70, 0x31, 0x00, 0x00, 0x04, 0x00, 0x00, 0x00, 0x10, 0x00, 0x00, 0x00,
  0x03, 0x00, 0x00, 0x00, 0x03, 0x00, 0x00, 0x00, 0x01, 0x00, 0x00, 0x00,
  0x42, 0xfe, 0xff, 0xff, 0x00, 0x00, 0x00, 0x01, 0x10, 0x00, 0x00, 0x00,
  0x10, 0x00, 0x00, 0x00, 0x06, 0x00, 0x00, 0x00, 0x9c, 0x00, 0x00, 0x00,
  0xb4, 0xfd, 0xff, 0xff, 0x8d, 0x00, 0x00, 0x00, 0x73, 0x65, 0x71, 0x75,
  0x65, 0x6e, 0x74, 0x69, 0x61, 0x6c, 0x2f, 0x63, 0x6f, 0x6e, 0x76, 0x32,
  0x64, 0x2f, 0x52, 0x65, 0x6c, 0x75, 0x3b, 0x73, 0x65, 0x71, 0x75, 0x65,
  0x6e, 0x74, 0x69, 0x61, 0x6c, 0x2f, 0x63, 0x6f, 0x6e, 0x76, 0x32, 0x64,
  0x2f, 0x42, 0x69, 0x61, 0x73, 0x41, 0x64, 0x64, 0x3b, 0x73, 0x65, 0x71,
  0x75, 0x65, 0x6e, 0x74, 0x69, 0x61, 0x6c, 0x2f, 0x63, 0x6f, 0x6e, 0x76,
  0x32, 0x64, 0x5f, 0x31, 0x2f, 0x43, 0x6f, 0x6e, 0x76, 0x32, 0x44, 0x3b,
  0x73, 0x65, 0x71, 0x75, 0x65, 0x6e, 0x74, 0x69, 0x61, 0x6c, 0x2f, 0x63,
  0x6f, 0x6e, 0x76, 0x32, 0x64, 0x2f, 0x43, 0x6f, 0x6e, 0x76, 0x32, 0x44,
  0x3b, 0x73, 0x65, 0x71, 0x75, 0x65, 0x6e, 0x74, 0x69, 0x61, 0x6c, 0x2f,
  0x63, 0x6f, 0x6e, 0x76, 0x32, 0x64, 0x2f, 0x42, 0x69, 0x61, 0x73, 0x41,
  0x64, 0x64, 0x2f, 0x52, 0x65, 0x61, 0x64, 0x56, 0x61, 0x72, 0x69, 0x61,
  0x62, 0x6c, 0x65, 0x4f, 0x70, 0x00, 0x00, 0x00, 0x01, 0x00, 0x00, 0x00,
  0x10, 0x00, 0x00, 0x00, 0x00, 0x00, 0x16, 0x00, 0x1c, 0x00, 0x18, 0x00,
  0x17, 0x00, 0x10, 0x00, 0x0c, 0x00, 0x08, 0x00, 0x00, 0x00, 0x00, 0x00,
  0x00, 0x00, 0x07, 0x00, 0x16, 0x00, 0x00, 0x00, 0x00, 0x00, 0x00, 0x01,
  0x14, 0x00, 0x00, 0x00, 0x14, 0x00, 0x00, 0x00, 0x05, 0x00, 0x00, 0x00,
  0x00, 0x00, 0x00, 0x02, 0x28, 0x00, 0x00, 0x00, 0x88, 0xfe, 0xff, 0xff,
  0x18, 0x00, 0x00, 0x00, 0x73, 0x65, 0x71, 0x75, 0x65, 0x6e, 0x74, 0x69,
  0x61, 0x6c, 0x2f, 0x66, 0x6c, 0x61, 0x74, 0x74, 0x65, 0x6e, 0x2f, 0x43,
  0x6f, 0x6e, 0x73, 0x74, 0x00, 0x00, 0x00, 0x00, 0x01, 0x00, 0x00, 0x00,
  0x02, 0x00, 0x00, 0x00, 0x5a, 0xff, 0xff, 0xff, 0x00, 0x00, 0x00, 0x01,
  0x10, 0x00, 0x00, 0x00, 0x10, 0x00, 0x00, 0x00, 0x04, 0x00, 0x00, 0x00,
  0x38, 0x00, 0x00, 0x00, 0xcc, 0xfe, 0xff, 0xff, 0x29, 0x00, 0x00, 0x00,
  0x73, 0x65, 0x71, 0x75, 0x65, 0x6e, 0x74, 0x69, 0x61, 0x6c, 0x2f, 0x64,
  0x65, 0x6e, 0x73, 0x65, 0x5f, 0x31, 0x2f, 0x42, 0x69, 0x61, 0x73, 0x41,
  0x64, 0x64, 0x2f, 0x52, 0x65, 0x61, 0x64, 0x56, 0x61, 0x72, 0x69, 0x61,
  0x62, 0x6c, 0x65, 0x4f, 0x70, 0x00, 0x00, 0x00, 0x01, 0x00, 0x00, 0x00,
  0x06, 0x00, 0x00, 0x00, 0xae, 0xff, 0xff, 0xff, 0x00, 0x00, 0x00, 0x01,
  0x10, 0x00, 0x00, 0x00, 0x10, 0x00, 0x00, 0x00, 0x03, 0x00, 0x00, 0x00,
  0x34, 0x00, 0x00, 0x00, 0x20, 0xff, 0xff, 0xff, 0x27, 0x00, 0x00, 0x00,
  0x73, 0x65, 0x71, 0x75, 0x65, 0x6e, 0x74, 0x69, 0x61, 0x6c, 0x2f, 0x64,
  0x65, 0x6e, 0x73, 0x65, 0x2f, 0x42, 0x69, 0x61, 0x73, 0x41, 0x64, 0x64,
  0x2f, 0x52, 0x65, 0x61, 0x64, 0x56, 0x61, 0x72, 0x69, 0x61, 0x62, 0x6c,
  0x65, 0x4f, 0x70, 0x00, 0x01, 0x00, 0x00, 0x00, 0x20, 0x00, 0x00, 0x00,
  0x00, 0x00, 0x16, 0x00, 0x18, 0x00, 0x14, 0x00, 0x00, 0x00, 0x10, 0x00,
  0x0c, 0x00, 0x08, 0x00, 0x00, 0x00, 0x00, 0x00, 0x00, 0x00, 0x07, 0x00,
  0x16, 0x00, 0x00, 0x00, 0x00, 0x00, 0x00, 0x01, 0x10, 0x00, 0x00, 0x00,
  0x10, 0x00, 0x00, 0x00, 0x02, 0x00, 0x00, 0x00, 0x28, 0x00, 0x00, 0x00,
  0x88, 0xff, 0xff, 0xff, 0x19, 0x00, 0x00, 0x00, 0x73, 0x65, 0x71, 0x75,
  0x65, 0x6e, 0x74, 0x69, 0x61, 0x6c, 0x2f, 0x64, 0x65, 0x6e, 0x73, 0x65,
  0x5f, 0x31, 0x2f, 0x4d, 0x61, 0x74, 0x4d, 0x75, 0x6c, 0x00, 0x00, 0x00,
  0x02, 0x00, 0x00, 0x00, 0x06, 0x00, 0x00, 0x00, 0x20, 0x00, 0x00, 0x00,
  0x00, 0x00, 0x16, 0x00, 0x1c, 0x00, 0x18, 0x00, 0x00, 0x00, 0x14, 0x00,
  0x10, 0x00, 0x0c, 0x00, 0x00, 0x00, 0x00, 0x00, 0x08, 0x00, 0x07, 0x00,
  0x16, 0x00, 0x00, 0x00, 0x00, 0x00, 0x00, 0x01, 0x14, 0x00, 0x00, 0x00,
  0x28, 0x00, 0x00, 0x00, 0x28, 0x00, 0x00, 0x00, 0x01, 0x00, 0x00, 0x00,
  0x40, 0x00, 0x00, 0x00, 0x04, 0x00, 0x00, 0x00, 0xff, 0xff, 0xff, 0xff,
  0x3d, 0x00, 0x00, 0x00, 0x0d, 0x00, 0x00, 0x00, 0x01, 0x00, 0x00, 0x00,
  0x04, 0x00, 0x04, 0x00, 0x04, 0x00, 0x00, 0x00, 0x19, 0x00, 0x00, 0x00,
  0x73, 0x65, 0x72, 0x76, 0x69, 0x6e, 0x67, 0x5f, 0x64, 0x65, 0x66, 0x61,
  0x75, 0x6c, 0x74, 0x5f, 0x69, 0x6e, 0x70, 0x75, 0x74, 0x5f, 0x31, 0x3a,
  0x30, 0x00, 0x00, 0x00, 0x04, 0x00, 0x00, 0x00, 0x01, 0x00, 0x00, 0x00,
  0x3d, 0x00, 0x00, 0x00, 0x0d, 0x00, 0x00, 0x00, 0x01, 0x00, 0x00, 0x00,
  0x05, 0x00, 0x00, 0x00, 0x60, 0x00, 0x00, 0x00, 0x44, 0x00, 0x00, 0x00,
  0x28, 0x00, 0x00, 0x00, 0x14, 0x00, 0x00, 0x00, 0x04, 0x00, 0x00, 0x00,
  0xd8, 0xff, 0xff, 0xff, 0x19, 0x00, 0x00, 0x00, 0x00, 0x00, 0x00, 0x19,
  0xcc, 0xff, 0xff, 0xff, 0x09, 0x00, 0x00, 0x00, 0x09, 0x00, 0x00, 0x00,
  0x00, 0x00, 0x00, 0x09, 0xf4, 0xff, 0xff, 0xff, 0x16, 0x00, 0x00, 0x00,
  0x00, 0x00, 0x00, 0x16, 0x0c, 0x00, 0x0c, 0x00, 0x0b, 0x00, 0x00, 0x00,
  0x00, 0x00, 0x04, 0x00, 0x0c, 0x00, 0x00, 0x00, 0x11, 0x00, 0x00, 0x00,
  0x00, 0x00, 0x00, 0x11, 0x0c, 0x00, 0x10, 0x00, 0x0f, 0x00, 0x00, 0x00,
  0x08, 0x00, 0x04, 0x00, 0x0c, 0x00, 0x00, 0x00, 0x03, 0x00, 0x00, 0x00,
  0x05, 0x00, 0x00, 0x00, 0x00, 0x00, 0x00, 0x03
};
unsigned int g_model_len = 14504;
